{
  "version": "1.0",
  "truncation": null,
  "padding": null,
  "added_tokens": [
    {
      "id": 0,
      "content": "[PAD]",
      "single_word": false,
      "lstrip": false,
      "rstrip": false,
      "normalized": false,
      "special": true
    },
    {
      "id": 1,
      "content": "[BOS]",
      "single_word": false,
      "lstrip": false,
      "rstrip": false,
      "normalized": false,
      "special": true
    },
    {
      "id": 2,
      "content": "[EOS]",
      "single_word": false,
      "lstrip": false,
      "rstrip": false,
      "normalized": false,
      "special": true
    },
    {
      "id": 3,
      "content": "[SEP]",
      "single_word": false,
      "lstrip": false,
      "rstrip": false,
      "normalized": false,
      "special": true
    },
    {
      "id": 4,
      "content": "[HASH]",
      "single_word": false,
      "lstrip": false,
      "rstrip": false,
      "normalized": false,
      "special": true
    }
  ],
  "normalizer": null,
  "pre_tokenizer": {
    "type": "ByteLevel",
    "add_prefix_space": false,
    "trim_offsets": true,
    "use_regex": true
  },
  "post_processor": {
    "type": "ByteLevel",
    "add_prefix_space": true,
    "trim_offsets": false,
    "use_regex": true
  },
  "decoder": {
    "type": "ByteLevel",
    "add_prefix_space": true,
    "trim_offsets": true,
    "use_regex": true
  },
  "model": {
    "type": "BPE",
    "dropout": null,
    "unk_token": null,
    "continuing_subword_prefix": null,
    "end_of_word_suffix": null,
    "fuse_unk": false,
    "byte_fallback": false,
    "ignore_merges": false,
    "vocab": {
      "[PAD]": 0,
      "[BOS]": 1,
      "[EOS]": 2,
      "[SEP]": 3,
      "[HASH]": 4,
      "!": 5,
      "\"": 6,
      "#": 7,
      "$": 8,
      "%": 9,
      "&": 10,
      "'": 11,
      "(": 12,
      ")": 13,
      "*": 14,
      "+": 15,
      ",": 16,
      "-": 17,
      ".": 18,
      "/": 19,
      "0": 20,
      "1": 21,
      "2": 22,
      "3": 23,
      "4": 24,
      "5": 25,
      "6": 26,
      "7": 27,
      "8": 28,
      "9": 29,
      ":": 30,
      ";": 31,
      "<": 32,
      "=": 33,
      ">": 34,
      "?": 35,
      "@": 36,
      "A": 37,
      "B": 38,
      "C": 39,
      "D": 40,
      "E": 41,
      "F": 42,
      "G": 43,
      "H": 44,
      "I": 45,
      "J": 46,
      "K": 47,
      "L": 48,
      "M": 49,
      "N": 50,
      "O": 51,
      "P": 52,
      "Q": 53,
      "R": 54,
      "S": 55,
      "T": 56,
      "U": 57,
      "V": 58,
      "W": 59,
      "X": 60,
      "Y": 61,
      "Z": 62,
      "[": 63,
      "\\": 64,
      "]": 65,
      "^": 66,
      "_": 67,
      "`": 68,
      "a": 69,
      "b": 70,
      "c": 71,
      "d": 72,
      "e": 73,
      "f": 74,
      "g": 75,
      "h": 76,
      "i": 77,
      "j": 78,
      "k": 79,
      "l": 80,
      "m": 81,
      "n": 82,
      "o": 83,
      "p": 84,
      "q": 85,
      "r": 86,
      "s": 87,
      "t": 88,
      "u": 89,
      "v": 90,
      "w": 91,
      "x": 92,
      "y": 93,
      "z": 94,
      "{": 95,
      "|": 96,
      "}": 97,
      "~": 98,
      "¡": 99,
      "¢": 100,
      "£": 101,
      "¤": 102,
      "¥": 103,
      "¦": 104,
      "§": 105,
      "¨": 106,
      "©": 107,
      "ª": 108,
      "«": 109,
      "¬": 110,
      "®": 111,
      "¯": 112,
      "°": 113,
      "±": 114,
      "²": 115,
      "³": 116,
      "´": 117,
      "µ": 118,
      "¶": 119,
      "·": 120,
      "¸": 121,
      "¹": 122,
      "º": 123,
      "»": 124,
      "¼": 125,
      "½": 126,
      "¾": 127,
      "¿": 128,
      "À": 129,
      "Á": 130,
      "Â": 131,
      "Ã": 132,
      "Ä": 133,
      "Å": 134,
      "Æ": 135,
      "Ç": 136,
      "È": 137,
      "É": 138,
      "Ê": 139,
      "Ë": 140,
      "Ì": 141,
      "Í": 142,
      "Î": 143,
      "Ï": 144,
      "Ð": 145,
      "Ñ": 146,
      "Ò": 147,
      "Ó": 148,
      "Ô": 149,
      "Õ": 150,
      "Ö": 151,
      "×": 152,
      "Ø": 153,
      "Ù": 154,
      "Ú": 155,
      "Û": 156,
      "Ü": 157,
      "Ý": 158,
      "Þ": 159,
      "ß": 160,
      "à": 161,
      "á": 162,
      "â": 163,
      "ã": 164,
      "ä": 165,
      "å": 166,
      "æ": 167,
      "ç": 168,
      "è": 169,
      "é": 170,
      "ê": 171,
      "ë": 172,
      "ì": 173,
      "í": 174,
      "î": 175,
      "ï": 176,
      "ð": 177,
      "ñ": 178,
      "ò": 179,
      "ó": 180,
      "ô": 181,
      "õ": 182,
      "ö": 183,
      "÷": 184,
      "ø": 185,
      "ù": 186,
      "ú": 187,
      "û": 188,
      "ü": 189,
      "ý": 190,
      "þ": 191,
      "ÿ": 192,
      "Ā": 193,
      "ā": 194,
      "Ă": 195,
      "ă": 196,
      "Ą": 197,
      "ą": 198,
      "Ć": 199,
      "ć": 200,
      "Ĉ": 201,
      "ĉ": 202,
      "Ċ": 203,
      "ċ": 204,
      "Č": 205,
      "č": 206,
      "Ď": 207,
      "ď": 208,
      "Đ": 209,
      "đ": 210,
      "Ē": 211,
      "ē": 212,
      "Ĕ": 213,
      "ĕ": 214,
      "Ė": 215,
      "ė": 216,
      "Ę": 217,
      "ę": 218,
      "Ě": 219,
      "ě": 220,
      "Ĝ": 221,
      "ĝ": 222,
      "Ğ": 223,
      "ğ": 224,
      "Ġ": 225,
      "ġ": 226,
      "Ģ": 227,
      "ģ": 228,
      "Ĥ": 229,
      "ĥ": 230,
      "Ħ": 231,
      "ħ": 232,
      "Ĩ": 233,
      "ĩ": 234,
      "Ī": 235,
      "ī": 236,
      "Ĭ": 237,
      "ĭ": 238,
      "Į": 239,
      "į": 240,
      "İ": 241,
      "ı": 242,
      "Ĳ": 243,
      "ĳ": 244,
      "Ĵ": 245,
      "ĵ": 246,
      "Ķ": 247,
      "ķ": 248,
      "ĸ": 249,
      "Ĺ": 250,
      "ĺ": 251,
      "Ļ": 252,
      "ļ": 253,
      "Ľ": 254,
      "ľ": 255,
      "Ŀ": 256,
      "ŀ": 257,
      "Ł": 258,
      "ł": 259,
      "Ń": 260,
      "Ġ/": 261,
      "Ġ[": 262,
      "SE": 263,
      "SEP": 264,
      "er": 265,
      "en": 266,
      "in": 267,
      "es": 268,
      "ro": 269,
      "an": 270,
      "ar": 271,
      "on": 272,
      "at": 273,
      "or": 274,
      "st": 275,
      "ch": 276,
      "al": 277,
      "20": 278,
      "de": 279,
      "AS": 280,
      "ASH": 281,
      "HASH": 282,
      "ht": 283,
      "OS": 284,
      "it": 285,
      "htm": 286,
      "pro": 287,
      "/[": 288,
      "le": 289,
      "du": 290,
      "re": 291,
      "ct": 292,
      "html": 293,
      "ag": 294,
      "et": 295,
      "produ": 296,
      "as": 297,
      "il": 298,
      "el": 299,
      "ic": 300,
      "]/": 301,
      "un": 302,
      "om": 303,
      "ion": 304,
      "ra": 305,
      "ent": 306,
      "is": 307,
      "10": 308,
      "lo": 309,
      "product": 310,
      "ur": 311,
      "ie": 312,
      "BOS": 313,
      "EOS": 314,
      "čĊ": 315,
      "us": 316,
      "ol": 317,
      "00": 318,
      "em": 319,
      "11": 320,
      "ta": 321,
      "ne": 322,
      "ho": 323,
      "am": 324,
      "25": 325,
      "ing": 326,
      "ad": 327,
      "to": 328,
      "la": 329,
      "ut": 330,
      "ed": 331,
      "art": 332,
      "12": 333,
      "li": 334,
      "14": 335,
      "24": 336,
      "13": 337,
      "te": 338,
      "sk": 339,
      "15": 340,
      "tag": 341,
      "im": 342,
      "17": 343,
      "se": 344,
      "po": 345,
      "19": 346,
      "ation": 347,
      "id": 348,
      "no": 349,
      "um": 350,
      "18": 351,
      "16": 352,
      "ik": 353,
      "and": 354,
      "ac": 355,
      "23": 356,
      "ia": 357,
      "bo": 358,
      "for": 359,
      "ers": 360,
      "ay": 361,
      "ir": 362,
      "mo": 363,
      "ph": 364,
      "ap": 365,
      "ws": 366,
      "th": 367,
      "co": 368,
      "do": 369,
      "ig": 370,
      "eg": 371,
      "products": 372,
      "up": 373,
      "kt": 374,
      "iv": 375,
      "ul": 376,
      "sp": 377,
      "22": 378,
      "04": 379,
      "03": 380,
      "sch": 381,
      "cat": 382,
      "com": 383,
      "ma": 384,
      "sho": 385,
      "26": 386,
      "news": 387,
      "ess": 388,
      "27": 389,
      "tail": 390,
      "age": 391,
      "est": 392,
      "ung": 393,
      "28": 394,
      "pl": 395,
      "ub": 396,
      "ass": 397,
      "detail": 398,
      "05": 399,
      "ce": 400,
      "ka": 401,
      "ev": 402,
      "29": 403,
      "07": 404,
      "06": 405,
      "pr": 406,
      "ob": 407,
      "ter": 408,
      "09": 409,
      "ist": 410,
      "08": 411,
      "fr": 412,
      "log": 413,
      "ab": 414,
      "ue": 415,
      "con": 416,
      "ck": 417,
      "ort": 418,
      "od": 419,
      "php": 420,
      "ory": 421,
      "vie": 422,
      "au": 423,
      "os": 424,
      "fa": 425,
      "97": 426,
      "inde": 427,
      "34": 428,
      "35": 429,
      "shop": 430,
      "na": 431,
      "Ġ/[": 432,
      "36": 433,
      "ver": 434,
      "index": 435,
      "--": 436,
      "og": 437,
      "be": 438,
      "37": 439,
      "di": 440,
      "2025": 441,
      "ine": 442,
      "38": 443,
      "45": 444,
      "ko": 445,
      "view": 446,
      "go": 447,
      "98": 448,
      "we": 449,
      "ge": 450,
      "ze": 451,
      "ser": 452,
      "all": 453,
      "der": 454,
      "mar": 455,
      "96": 456,
      "46": 457,
      "of": 458,
      "sh": 459,
      "48": 460,
      "ents": 461,
      "categ": 462,
      "tr": 463,
      "vo": 464,
      "47": 465,
      "ts": 466,
      "ip": 467,
      "qu": 468,
      "ki": 469,
      "ww": 470,
      "02": 471,
      "ich": 472,
      "95": 473,
      "page": 474,
      "01": 475,
      "les": 476,
      "br": 477,
      "ok": 478,
      "aya": 479,
      "ber": 480,
      "me": 481,
      "und": 482,
      "85": 483,
      "21": 484,
      "io": 485,
      "ies": 486,
      "tra": 487,
      "ak": 488,
      "category": 489,
      "he": 490,
      "fe": 491,
      "item": 492,
      "67": 493,
      "je": 494,
      "ale": 495,
      "blog": 496,
      "88": 497,
      "65": 498,
      "39": 499,
      "asset": 500,
      "ions": 501,
      "ide": 502,
      "op": 503,
      "ile": 504,
      "44": 505,
      "man": 506,
      "fo": 507,
      "ien": 508,
      "ier": 509,
      "ite": 510,
      "gr": 511,
      "87": 512,
      "arch": 513,
      "ny": 514,
      "ard": 515,
      "55": 516,
      "iz": 517,
      "ity": 518,
      "30": 519,
      "da": 520,
      "ba": 521,
      "2024": 522,
      "ment": 523,
      "99": 524,
      "job": 525,
      "mat": 526,
      "ca": 527,
      "sa": 528,
      "are": 529,
      "res": 530,
      "ke": 531,
      "77": 532,
      "33": 533,
      "ci": 534,
      "so": 535,
      "fer": 536,
      "station": 537,
      "produkt": 538,
      "66": 539,
      "per": 540,
      "za": 541,
      "artic": 542,
      "ha": 543,
      "the": 544,
      "wor": 545,
      "ug": 546,
      "ure": 547,
      "ant": 548,
      "ex": 549,
      "kup": 550,
      "ja": 551,
      "ov": 552,
      "ell": 553,
      "49": 554,
      "df": 555,
      "pe": 556,
      "list": 557,
      "86": 558,
      "75": 559,
      "if": 560,
      "ate": 561,
      "ang": 562,
      "ice": 563,
      "port": 564,
      "col": 565,
      "des": 566,
      "pa": 567,
      "43": 568,
      "gra": 569,
      "aut": 570,
      "ino": 571,
      "zh": 572,
      "kupit": 573,
      "med": 574,
      "ry": 575,
      "ru": 576,
      "che": 577,
      "ten": 578,
      "alog": 579,
      "par": 580,
      "ya": 581,
      "wn": 582,
      "jo": 583,
      "ve": 584,
      "mon": 585,
      "cl": 586,
      "ty": 587,
      "kv": 588,
      "pla": 589,
      "kom": 590,
      "ira": 591,
      "hr": 592,
      "57": 593,
      "zy": 594,
      "ib": 595,
      "40": 596,
      "ive": 597,
      "ult": 598,
      "68": 599,
      "sy": 600,
      "sc": 601,
      "ot": 602,
      "post": 603,
      "lin": 604,
      "doc": 605,
      "pho": 606,
      "form": 607,
      "bu": 608,
      "ner": 609,
      "va": 610,
      "cas": 611,
      "my": 612,
      "events": 613,
      "pdf": 614,
      "2023": 615,
      "ome": 616,
      "fil": 617,
      "serv": 618,
      "photo": 619,
      "lect": 620,
      "load": 621,
      "ces": 622,
      "bil": 623,
      "kvart": 624,
      "ans": 625,
      "mer": 626,
      "cont": 627,
      "56": 628,
      "del": 629,
      "ore": 630,
      "wa": 631,
      "comp": 632,
      "www": 633,
      "ban": 634,
      "89": 635,
      "pol": 636,
      "nat": 637,
      "book": 638,
      "end": 639,
      "article": 640,
      "wy": 641,
      "kon": 642,
      "min": 643,
      "urs": 644,
      "bl": 645,
      "alt": 646,
      "kvartira": 647,
      "let": 648,
      "wo": 649,
      "kat": 650,
      "nik": 651,
      "ages": 652,
      "84": 653,
      "file": 654,
      "dr": 655,
      "sale": 656,
      "users": 657,
      "fir": 658,
      "part": 659,
      "ema": 660,
      "ps": 661,
      "cin": 662,
      "bus": 663,
      "ks": 664,
      "ens": 665,
      "stro": 666,
      "69": 667,
      "kl": 668,
      "ations": 669,
      "ill": 670,
      "gu": 671,
      "int": 672,
      "catalog": 673,
      "su": 674,
      "59": 675,
      "wer": 676,
      "bd": 677,
      "met": 678,
      "day": 679,
      "act": 680,
      "ff": 681,
      "vide": 682,
      "line": 683,
      "gen": 684,
      "ungen": 685,
      "ire": 686,
      "ster": 687,
      "78": 688,
      "land": 689,
      "ep": 690,
      "ash": 691,
      "ack": 692,
      "/%": 693,
      "skaya": 694,
      "50": 695,
      "cz": 696,
      "event": 697,
      "76": 698,
      "58": 699,
      "ial": 700,
      "fre": 701,
      "top": 702,
      "que": 703,
      "av": 704,
      "ud": 705,
      "32": 706,
      "79": 707,
      "ss": 708,
      "press": 709,
      "lic": 710,
      "vel": 711,
      "hor": 712,
      "ix": 713,
      "jobs": 714,
      "her": 715,
      "urg": 716,
      "31": 717,
      "men": 718,
      "mit": 719,
      "fl": 720,
      "shopdetail": 721,
      "pub": 722,
      "dat": 723,
      "2022": 724,
      "naya": 725,
      "new": 726,
      "ket": 727,
      "home": 728,
      "items": 729,
      "forum": 730,
      "ron": 731,
      "ics": 732,
      "yo": 733,
      "forsale": 734,
      "64": 735,
      "content": 736,
      "000": 737,
      "mm": 738,
      "pre": 739,
      "ann": 740,
      "akt": 741,
      "ids": 742,
      "one": 743,
      "sub": 744,
      "urn": 745,
      "details": 746,
      "60": 747,
      "iel": 748,
      "cer": 749,
      "54": 750,
      "chen": 751,
      "af": 752,
      "str": 753,
      "car": 754,
      "iss": 755,
      "ian": 756,
      "80": 757,
      "dl": 758,
      "ein": 759,
      "gro": 760,
      "63": 761,
      "schu": 762,
      "ds": 763,
      "94": 764,
      "inter": 765,
      "cinema": 766,
      "ace": 767,
      "mus": 768,
      "2020": 769,
      "eng": 770,
      "ise": 771,
      "bar": 772,
      "ence": 773,
      "sport": 774,
      "train": 775,
      "ery": 776,
      "cal": 777,
      "53": 778,
      "ement": 779,
      "asp": 780,
      "cy": 781,
      "docs": 782,
      "2021": 783,
      "ski": 784,
      "uch": 785,
      "down": 786,
      "ek": 787,
      "pt": 788,
      "net": 789,
      "74": 790,
      "ons": 791,
      "gam": 792,
      "sz": 793,
      "sv": 794,
      "uer": 795,
      "ance": 796,
      "011": 797,
      "ary": 798,
      "2019": 799,
      "pet": 800,
      "82": 801,
      "kids": 802,
      "proje": 803,
      "az": 804,
      "web": 805,
      "ux": 806,
      "ina": 807,
      "90": 808,
      "collect": 809,
      "bel": 810,
      "fol": 811,
      "org": 812,
      "ow": 813,
      "ign": 814,
      "read": 815,
      "ish": 816,
      "ins": 817,
      "2018": 818,
      "83": 819,
      "ms": 820,
      "by": 821,
      "mosk": 822,
      "73": 823,
      "lig": 824,
      "bout": 825,
      "ach": 826,
      "uk": 827,
      "last": 828,
      "online": 829,
      "out": 830,
      "70": 831,
      "hn": 832,
      "its": 833,
      "93": 834,
      "ual": 835,
      "atta": 836,
      "den": 837,
      "ng": 838,
      "spe": 839,
      "gal": 840,
      "tel": 841,
      "kr": 842,
      "ical": 843,
      "komnat": 844,
      "our": 845,
      "ste": 846,
      "ml": 847,
      "wh": 848,
      "download": 849,
      "ices": 850,
      "app": 851,
      "ust": 852,
      "play": 853,
      "anst": 854,
      "public": 855,
      "tags": 856,
      "ings": 857,
      "hl": 858,
      "42": 859,
      "2017": 860,
      "ben": 861,
      "2016": 862,
      "komnatnaya": 863,
      "ction": 864,
      "ick": 865,
      "ika": 866,
      "gl": 867,
      "amp": 868,
      "110": 869,
      "casino": 870,
      "ger": 871,
      "cre": 872,
      "attach": 873,
      "ys": 874,
      "fin": 875,
      "author": 876,
      "pg": 877,
      "wp": 878,
      "urban": 879,
      "cor": 880,
      "burg": 881,
      "alb": 882,
      "kar": 883,
      "120": 884,
      "agen": 885,
      "/~": 886,
      "zen": 887,
      "0000": 888,
      "ique": 889,
      "reg": 890,
      "books": 891,
      "anstalt": 892,
      "uel": 893,
      "video": 894,
      "novo": 895,
      "cc": 896,
      "2015": 897,
      "urse": 898,
      "bla": 899,
      "bro": 900,
      "ica": 901,
      "war": 902,
      "oblast": 903,
      "dy": 904,
      "2014": 905,
      "site": 906,
      "today": 907,
      "etze": 908,
      "ly": 909,
      "2013": 910,
      "aspx": 911,
      "ft": 912,
      "52": 913,
      "mi": 914,
      "aus": 915,
      "gol": 916,
      "profile": 917,
      "100": 918,
      "progra": 919,
      "mun": 920,
      "bet": 921,
      "wit": 922,
      "eu": 923,
      "Ġ/~": 924,
      "mag": 925,
      "eR": 926,
      "acc": 927,
      "suburban": 928,
      "service": 929,
      "refer": 930,
      "good": 931,
      "dom": 932,
      "pap": 933,
      "kal": 934,
      "ye": 935,
      "ning": 936,
      "nov": 937,
      "tt": 938,
      "show": 939,
      "ni": 940,
      "kte": 941,
      "dz": 942,
      "son": 943,
      "sta": 944,
      "cent": 945,
      "veranstalt": 946,
      "set": 947,
      "ange": 948,
      "gre": 949,
      "work": 950,
      "schuetze": 951,
      "hand": 952,
      "archiv": 953,
      "ken": 954,
      "info": 955,
      "cher": 956,
      "album": 957,
      "dis": 958,
      "hol": 959,
      "zer": 960,
      "attachment": 961,
      "sal": 962,
      "62": 963,
      "2012": 964,
      "ga": 965,
      "tor": 966,
      "dio": 967,
      "room": 968,
      "gall": 969,
      "ble": 970,
      "pan": 971,
      "92": 972,
      "san": 973,
      ")/": 974,
      "41": 975,
      "ec": 976,
      "bed": 977,
      "about": 978,
      "store": 979,
      "och": 980,
      "iki": 981,
      "pra": 982,
      "sup": 983,
      "por": 984,
      "ase": 985,
      "brand": 986,
      "ii": 987,
      "collections": 988,
      "kol": 989,
      "72": 990,
      "ight": 991,
      "81": 992,
      "ele": 993,
      "ition": 994,
      "sen": 995,
      "stu": 996,
      "hy": 997,
      "xt": 998,
      "mas": 999,
      "user": 1000,
      "tv": 1001,
      "search": 1002,
      "group": 1003,
      "bre": 1004,
      "card": 1005,
      "gi": 1006,
      "cm": 1007,
      "uf": 1008,
      "sam": 1009,
      "sol": 1010,
      "cr": 1011,
      "bal": 1012,
      "ges": 1013,
      "ku": 1014,
      "shtml": 1015,
      "stre": 1016,
      "Ot": 1017,
      "sm": 1018,
      "ren": 1019,
      "plat": 1020,
      "ana": 1021,
      "bbd": 1022,
      "test": 1023,
      "bra": 1024,
      "/+": 1025,
      "inst": 1026,
      "vol": 1027,
      "ories": 1028,
      "cial": 1029,
      "tech": 1030,
      "ites": 1031,
      "vis": 1032,
      "Pro": 1033,
      "ef": 1034,
      "ri": 1035,
      "city": 1036,
      "CE": 1037,
      "dv": 1038,
      "In": 1039,
      "lh": 1040,
      "tre": 1041,
      "OtH": 1042,
      "OtHeR": 1043,
      "services": 1044,
      "media": 1045,
      "thread": 1046,
      "]/[": 1047,
      "vent": 1048,
      "novostro": 1049,
      "ator": 1050,
      "win": 1051,
      "gallery": 1052,
      "pers": 1053,
      "produit": 1054,
      "bi": 1055,
      "img": 1056,
      "lu": 1057,
      "archive": 1058,
      "project": 1059,
      "mu": 1060,
      "off": 1061,
      "ker": 1062,
      "mal": 1063,
      "pi": 1064,
      "char": 1065,
      "firma": 1066,
      "use": 1067,
      "nach": 1068,
      "ches": 1069,
      "ille": 1070,
      "kh": 1071,
      "vi": 1072,
      "var": 1073,
      "sw": 1074,
      "hel": 1075,
      "ler": 1076,
      "att": 1077,
      "ong": 1078,
      "dist": 1079,
      "way": 1080,
      "ane": 1081,
      "mem": 1082,
      "cours": 1083,
      "ast": 1084,
      "/-": 1085,
      "ven": 1086,
      "ita": 1087,
      "pod": 1088,
      "any": 1089,
      "py": 1090,
      "pos": 1091,
      "71": 1092,
      "rol": 1093,
      "goods": 1094,
      "ital": 1095,
      "conta": 1096,
      "51": 1097,
      "market": 1098,
      "ai": 1099,
      "story": 1100,
      "glo": 1101,
      "91": 1102,
      "coun": 1103,
      "_(": 1104,
      "kan": 1105,
      "node": 1106,
      "val": 1107,
      "iture": 1108,
      "join": 1109,
      "uss": 1110,
      "tu": 1111,
      "nos": 1112,
      "portfol": 1113,
      "egor": 1114,
      "upload": 1115,
      "dar": 1116,
      "iness": 1117,
      "oc": 1118,
      "black": 1119,
      "ank": 1120,
      "ors": 1121,
      "pat": 1122,
      "ets": 1123,
      "nie": 1124,
      "eta": 1125,
      "lot": 1126,
      "61": 1127,
      "portfolio": 1128,
      "can": 1129,
      "kin": 1130,
      "zo": 1131,
      "ton": 1132,
      "reference": 1133,
      "hkomnatnaya": 1134,
      "irt": 1135,
      "articles": 1136,
      "tour": 1137,
      "bb": 1138,
      "lat": 1139,
      "phtml": 1140,
      "ther": 1141,
      "km": 1142,
      "ord": 1143,
      "ister": 1144,
      "cle": 1145,
      "pages": 1146,
      "bon": 1147,
      "2011": 1148,
      "pf": 1149,
      "ball": 1150,
      "vers": 1151,
      "red": 1152,
      "lag": 1153,
      "business": 1154,
      "ros": 1155,
      "tem": 1156,
      "contact": 1157,
      "van": 1158,
      "air": 1159,
      "rat": 1160,
      "priv": 1161,
      "ou": 1162,
      "loc": 1163,
      "mes": 1164,
      "clo": 1165,
      "Sp": 1166,
      "less": 1167,
      "dig": 1168,
      "ush": 1169,
      "BC": 1170,
      "ater": 1171,
      "pen": 1172,
      "kategor": 1173,
      "dung": 1174,
      "don": 1175,
      "ovskaya": 1176,
      "gb": 1177,
      "len": 1178,
      "die": 1179,
      "103": 1180,
      "si": 1181,
      "mel": 1182,
      "ube": 1183,
      "sli": 1184,
      "ld": 1185,
      "low": 1186,
      "produkte": 1187,
      "icht": 1188,
      "fault": 1189,
      "125": 1190,
      "cf": 1191,
      "sto": 1192,
      "uploads": 1193,
      "cam": 1194,
      "hu": 1195,
      "plan": 1196,
      "AF": 1197,
      "nye": 1198,
      "vs": 1199,
      "jka": 1200,
      "ath": 1201,
      "plo": 1202,
      "rad": 1203,
      "access": 1204,
      "aktuel": 1205,
      "moskva": 1206,
      "free": 1207,
      "ument": 1208,
      "ements": 1209,
      "ments": 1210,
      "ae": 1211,
      "best": 1212,
      "mobil": 1213,
      "cht": 1214,
      "stem": 1215,
      "add": 1216,
      "ender": 1217,
      "videos": 1218,
      "images": 1219,
      "courses": 1220,
      "har": 1221,
      "team": 1222,
      "bas": 1223,
      "sty": 1224,
      "als": 1225,
      "jan": 1226,
      "200": 1227,
      "rec": 1228,
      "stat": 1229,
      "cho": 1230,
      "dam": 1231,
      "Ar": 1232,
      "wel": 1233,
      "ju": 1234,
      "kle": 1235,
      "fuer": 1236,
      "far": 1237,
      "cd": 1238,
      "ute": 1239,
      "paper": 1240,
      "gel": 1241,
      "ling": 1242,
      "eter": 1243,
      "500": 1244,
      "pp": 1245,
      "ply": 1246,
      "lots": 1247,
      "impress": 1248,
      "2010": 1249,
      "urniture": 1250,
      "tro": 1251,
      "ER": 1252,
      "data": 1253,
      "nis": 1254,
      "gy": 1255,
      "guide": 1256,
      "ensch": 1257,
      "model": 1258,
      "ced": 1259,
      "novostrojka": 1260,
      "map": 1261,
      "ee": 1262,
      "nl": 1263,
      "sl": 1264,
      "ull": 1265,
      "vod": 1266,
      "bor": 1267,
      "rod": 1268,
      "tim": 1269,
      "wal": 1270,
      "iter": 1271,
      "producer": 1272,
      "quest": 1273,
      "get": 1274,
      "ham": 1275,
      "with": 1276,
      "stell": 1277,
      "iten": 1278,
      "word": 1279,
      "ogle": 1280,
      "lan": 1281,
      "vy": 1282,
      "archives": 1283,
      "manag": 1284,
      "utz": 1285,
      "tes": 1286,
      "kos": 1287,
      "dd": 1288,
      "ison": 1289,
      "veranstaltungen": 1290,
      "300": 1291,
      "moskovskaya": 1292,
      "224": 1293,
      "class": 1294,
      "sur": 1295,
      "how": 1296,
      "unner": 1297,
      "rov": 1298,
      "eb": 1299,
      "fahr": 1300,
      "haus": 1301,
      "commun": 1302,
      "may": 1303,
      "hal": 1304,
      "pres": 1305,
      "045": 1306,
      "design": 1307,
      "AL": 1308,
      "ley": 1309,
      "hotel": 1310,
      "ada": 1311,
      "aly": 1312,
      "aktuelles": 1313,
      "light": 1314,
      "iya": 1315,
      "dro": 1316,
      "uz": 1317,
      "lar": 1318,
      "ata": 1319,
      "fs": 1320,
      "han": 1321,
      "king": 1322,
      "gar": 1323,
      "kor": 1324,
      "sil": 1325,
      "ivers": 1326,
      "person": 1327,
      "db": 1328,
      "foto": 1329,
      "ungs": 1330,
      "ques": 1331,
      "default": 1332,
      "ska": 1333,
      "berg": 1334,
      "128": 1335,
      "Ne": 1336,
      "220": 1337,
      "fi": 1338,
      "course": 1339,
      "oe": 1340,
      "firmy": 1341,
      "dan": 1342,
      "178": 1343,
      "box": 1344,
      "ication": 1345,
      "review": 1346,
      "fest": 1347,
      "pie": 1348,
      "furniture": 1349,
      "game": 1350,
      "now": 1351,
      "105": 1352,
      "Space": 1353,
      "tic": 1354,
      "Produ": 1355,
      "nor": 1356,
      "cast": 1357,
      "Tra": 1358,
      "artik": 1359,
      "fc": 1360,
      "Runner": 1361,
      "takt": 1362,
      "fit": 1363,
      "RunnerSpace": 1364,
      "107": 1365,
      "nam": 1366,
      "2009": 1367,
      "ink": 1368,
      "An": 1369,
      "dire": 1370,
      "400": 1371,
      "cu": 1372,
      "kam": 1373,
      "cha": 1374,
      "ols": 1375,
      "ete": 1376,
      "key": 1377,
      "bad": 1378,
      "bs": 1379,
      "cs": 1380,
      "star": 1381,
      "google": 1382,
      "ring": 1383,
      "cur": 1384,
      "mp": 1385,
      "onent": 1386,
      "104": 1387,
      "tal": 1388,
      "system": 1389,
      "tw": 1390,
      "views": 1391,
      "led": 1392,
      "ric": 1393,
      "sof": 1394,
      "tom": 1395,
      "vor": 1396,
      "ily": 1397,
      "files": 1398,
      "aux": 1399,
      "bat": 1400,
      "stand": 1401,
      "kra": 1402,
      "fon": 1403,
      "fra": 1404,
      "bab": 1405,
      "lad": 1406,
      "unter": 1407,
      "angebo": 1408,
      "unden": 1409,
      "main": 1410,
      "euro": 1411,
      "nom": 1412,
      "anie": 1413,
      "roz": 1414,
      "__": 1415,
      "fam": 1416,
      "ade": 1417,
      "mb": 1418,
      "EN": 1419,
      "DA": 1420,
      "back": 1421,
      "auf": 1422,
      "isch": 1423,
      "bes": 1424,
      "rail": 1425,
      "games": 1426,
      "lex": 1427,
      "ike": 1428,
      "elle": 1429,
      "galer": 1430,
      "211": 1431,
      "ild": 1432,
      "cap": 1433,
      "katalog": 1434,
      "mater": 1435,
      "106": 1436,
      "mos": 1437,
      "kre": 1438,
      "iat": 1439,
      "wie": 1440,
      "sem": 1441,
      "bers": 1442,
      "cia": 1443,
      "skie": 1444,
      "ads": 1445,
      "forums": 1446,
      "rou": 1447,
      "company": 1448,
      "image": 1449,
      "jun": 1450,
      "start": 1451,
      "mac": 1452,
      "ini": 1453,
      "photos": 1454,
      "care": 1455,
      "ips": 1456,
      "sim": 1457,
      "master": 1458,
      "978": 1459,
      "hi": 1460,
      "bf": 1461,
      "-%": 1462,
      "ige": 1463,
      "inform": 1464,
      "108": 1465,
      "live": 1466,
      "AA": 1467,
      "ax": 1468,
      "kontakt": 1469,
      "lang": 1470,
      "/+/[": 1471,
      "ura": 1472,
      "board": 1473,
      "aw": 1474,
      "tar": 1475,
      "ey": 1476,
      "pack": 1477,
      "able": 1478,
      "aa": 1479,
      "jpg": 1480,
      "ti": 1481,
      "De": 1482,
      "ost": 1483,
      "god": 1484,
      "DB": 1485,
      "erg": 1486,
      "dien": 1487,
      "bc": 1488,
      "ech": 1489,
      "225": 1490,
      "track": 1491,
      "world": 1492,
      "direct": 1493,
      "feed": 1494,
      "htt": 1495,
      "leg": 1496,
      "admin": 1497,
      "109": 1498,
      "era": 1499,
      "partner": 1500,
      "resour": 1501,
      "skiy": 1502,
      "US": 1503,
      "erv": 1504,
      "150": 1505,
      "component": 1506,
      "dc": 1507,
      "odno": 1508,
      "iny": 1509,
      "scho": 1510,
      "ky": 1511,
      "214": 1512,
      "hs": 1513,
      "vid": 1514,
      "ias": 1515,
      "rom": 1516,
      "edu": 1517,
      "bol": 1518,
      "AR": 1519,
      "jon": 1520,
      "rest": 1521,
      "stad": 1522,
      "Product": 1523,
      "kur": 1524,
      "date": 1525,
      "nes": 1526,
      "zu": 1527,
      "bid": 1528,
      "music": 1529,
      "115": 1530,
      "iko": 1531,
      "216": 1532,
      "ines": 1533,
      "wom": 1534,
      "czy": 1535,
      "alth": 1536,
      "tur": 1537,
      "ness": 1538,
      "iere": 1539,
      "dvu": 1540,
      "kunden": 1541,
      "ind": 1542,
      "club": 1543,
      "ara": 1544,
      "utions": 1545,
      "kit": 1546,
      "mil": 1547,
      "las": 1548,
      "ats": 1549,
      "nit": 1550,
      "tran": 1551,
      "pal": 1552,
      "dra": 1553,
      "117": 1554,
      "sr": 1555,
      "liv": 1556,
      "nen": 1557,
      "term": 1558,
      "ety": 1559,
      "acy": 1560,
      "Reg": 1561,
      "api": 1562,
      "programm": 1563,
      "railway": 1564,
      "listing": 1565,
      "ires": 1566,
      "ere": 1567,
      "dvuhkomnatnaya": 1568,
      "studi": 1569,
      "topic": 1570,
      "neu": 1571,
      "cro": 1572,
      "pot": 1573,
      "categor": 1574,
      "114": 1575,
      "place": 1576,
      "odnokomnatnaya": 1577,
      "dec": 1578,
      "auto": 1579,
      "fel": 1580,
      "dlya": 1581,
      "dor": 1582,
      "ures": 1583,
      "2007": 1584,
      "gem": 1585,
      "arten": 1586,
      "noun": 1587,
      "wj": 1588,
      "1000": 1589,
      "Travel": 1590,
      "iy": 1591,
      "RN": 1592,
      "metro": 1593,
      "ih": 1594,
      "gor": 1595,
      "lessons": 1596,
      "IN": 1597,
      "nation": 1598,
      "ctions": 1599,
      "series": 1600,
      "213": 1601,
      "215": 1602,
      "polit": 1603,
      ":/": 1604,
      "blo": 1605,
      "Re": 1606,
      "artikel": 1607,
      "uen": 1608,
      "chr": 1609,
      "cedes": 1610,
      "ple": 1611,
      "wood": 1612,
      "QH": 1613,
      "ama": 1614,
      "116": 1615,
      "modu": 1616,
      "cja": 1617,
      "utsch": 1618,
      "fun": 1619,
      "reviews": 1620,
      "mob": 1621,
      "wr": 1622,
      "edition": 1623,
      "phone": 1624,
      "mor": 1625,
      "emplo": 1626,
      "hist": 1627,
      "spiel": 1628,
      "177": 1629,
      "ting": 1630,
      "stor": 1631,
      "ji": 1632,
      "stop": 1633,
      "organ": 1634,
      "hoer": 1635,
      "cli": 1636,
      "asy": 1637,
      "trans": 1638,
      "127": 1639,
      "frien": 1640,
      "arbe": 1641,
      "sel": 1642,
      "ena": 1643,
      "put": 1644,
      "wi": 1645,
      "plus": 1646,
      "sat": 1647,
      "sports": 1648,
      "offer": 1649,
      "rich": 1650,
      "kie": 1651,
      "them": 1652,
      "erung": 1653,
      "bib": 1654,
      "golf": 1655,
      "community": 1656,
      "223": 1657,
      "sie": 1658,
      "bau": 1659,
      "404": 1660,
      "over": 1661,
      "logy": 1662,
      "ves": 1663,
      "hem": 1664,
      "beaut": 1665,
      "ls": 1666,
      "ior": 1667,
      "elect": 1668,
      "code": 1669,
      "kurs": 1670,
      "600": 1671,
      "pay": 1672,
      "aft": 1673,
      "center": 1674,
      "dk": 1675,
      "2008": 1676,
      "ities": 1677,
      "mail": 1678,
      "cel": 1679,
      "demar": 1680,
      "gener": 1681,
      "nas": 1682,
      "pes": 1683,
      "St": 1684,
      "ano": 1685,
      "reply": 1686,
      "health": 1687,
      "ament": 1688,
      "118": 1689,
      "mc": 1690,
      "announ": 1691,
      "datensch": 1692,
      "mercedes": 1693,
      "anz": 1694,
      "indu": 1695,
      "max": 1696,
      "2026": 1697,
      "gold": 1698,
      "ero": 1699,
      "teil": 1700,
      "mw": 1701,
      "idu": 1702,
      "ette": 1703,
      "mg": 1704,
      "ea": 1705,
      "zeit": 1706,
      "vin": 1707,
      "ua": 1708,
      "activ": 1709,
      "AN": 1710,
      "icy": 1711,
      "autom": 1712,
      "rum": 1713,
      "126": 1714,
      "report": 1715,
      "175": 1716,
      "219": 1717,
      "street": 1718,
      "local": 1719,
      "igh": 1720,
      "cks": 1721,
      "los": 1722,
      "hom": 1723,
      "bit": 1724,
      "bedroom": 1725,
      "immobil": 1726,
      "ogra": 1727,
      "ium": 1728,
      "itm": 1729,
      "fb": 1730,
      "147": 1731,
      "publication": 1732,
      "News": 1733,
      "not": 1734,
      "used": 1735,
      "resources": 1736,
      "pom": 1737,
      "RO": 1738,
      "176": 1739,
      "137": 1740,
      "135": 1741,
      "Nurse": 1742,
      "ility": 1743,
      "CF": 1744,
      "lege": 1745,
      "nosci": 1746,
      "124": 1747,
      "bag": 1748,
      "blogs": 1749,
      "istered": 1750,
      "audio": 1751,
      "QF": 1752,
      "210": 1753,
      "benz": 1754,
      "jul": 1755,
      "resul": 1756,
      "login": 1757,
      "bez": 1758,
      "ime": 1759,
      "dun": 1760,
      "RE": 1761,
      "pc": 1762,
      "nu": 1763,
      "QG": 1764,
      "handle": 1765,
      "pil": 1766,
      "ral": 1767,
      "218": 1768,
      "resta": 1769,
      "129": 1770,
      "annon": 1771,
      "205": 1772,
      "dsc": 1773,
      "sum": 1774,
      "123": 1775,
      "ants": 1776,
      "IM": 1777,
      "mich": 1778,
      "206": 1779,
      "proper": 1780,
      "rot": 1781,
      "mobile": 1782,
      "seite": 1783,
      "AE": 1784,
      "AC": 1785,
      "demarches": 1786,
      "ctor": 1787,
      "actual": 1788,
      "flo": 1789,
      "material": 1790,
      "edit": 1791,
      "projects": 1792,
      "link": 1793,
      "equ": 1794,
      "QE": 1795,
      "mach": 1796,
      "ala": 1797,
      "ida": 1798,
      "wynik": 1799,
      "zz": 1800,
      "250": 1801,
      "shirt": 1802,
      "fran": 1803,
      "viewdetails": 1804,
      "Registered": 1805,
      "ding": 1806,
      "uments": 1807,
      "support": 1808,
      "tele": 1809,
      "kras": 1810,
      "band": 1811,
      "155": 1812,
      "even": 1813,
      "ische": 1814,
      "wat": 1815,
      "ern": 1816,
      "stru": 1817,
      "leist": 1818,
      "sort": 1819,
      "6045": 1820,
      "shtm": 1821,
      "ona": 1822,
      "veranstaltung": 1823,
      "lie": 1824,
      "pass": 1825,
      "dem": 1826,
      "zhk": 1827,
      "140": 1828,
      "AH": 1829,
      "sing": 1830,
      "une": 1831,
      "baza": 1832,
      "fig": 1833,
      "138": 1834,
      "cloud": 1835,
      "print": 1836,
      "113": 1837,
      "kun": 1838,
      "Al": 1839,
      "136": 1840,
      "jak": 1841,
      "bin": 1842,
      "DE": 1843,
      "lit": 1844,
      "oo": 1845,
      "208": 1846,
      "nia": 1847,
      "prof": 1848,
      "tex": 1849,
      "oct": 1850,
      "announc": 1851,
      "oper": 1852,
      "das": 1853,
      "bw": 1854,
      "wiki": 1855,
      "ubehoer": 1856,
      "aug": 1857,
      "results": 1858,
      "oy": 1859,
      "2006": 1860,
      "133": 1861,
      "stra": 1862,
      "fort": 1863,
      "graph": 1864,
      "rele": 1865,
      "145": 1866,
      "angebote": 1867,
      "ustom": 1868,
      "apr": 1869,
      "serien": 1870,
      "din": 1871,
      "ns": 1872,
      "pu": 1873,
      "hen": 1874,
      "cert": 1875,
      "mess": 1876,
      "ran": 1877,
      "mult": 1878,
      "eS": 1879,
      "real": 1880,
      "cb": 1881,
      "house": 1882,
      "207": 1883,
      "restaur": 1884,
      "ark": 1885,
      "130": 1886,
      "lam": 1887,
      "slide": 1888,
      "119": 1889,
      "dia": 1890,
      "bg": 1891,
      "kg": 1892,
      "program": 1893,
      "tools": 1894,
      "ode": 1895,
      "157": 1896,
      "klad": 1897,
      "chi": 1898,
      "artist": 1899,
      "xml": 1900,
      "park": 1901,
      "special": 1902,
      "saint": 1903,
      "ift": 1904,
      "001": 1905,
      "ram": 1906,
      "posts": 1907,
      "sn": 1908,
      "blue": 1909,
      "enter": 1910,
      "devel": 1911,
      "next": 1912,
      "cie": 1913,
      "cart": 1914,
      "privat": 1915,
      "bio": 1916,
      "agenda": 1917,
      "kategorie": 1918,
      "jack": 1919,
      "oh": 1920,
      "miss": 1921,
      "AG": 1922,
      "xy": 1923,
      "platform": 1924,
      "maison": 1925,
      "mont": 1926,
      "iment": 1927,
      "aktual": 1928,
      "amer": 1929,
      "ain": 1930,
      "region": 1931,
      "dla": 1932,
      "france": 1933,
      "345": 1934,
      "ils": 1935,
      "134": 1936,
      "white": 1937,
      "146": 1938,
      "ville": 1939,
      "som": 1940,
      "wol": 1941,
      "vet": 1942,
      "collection": 1943,
      "fu": 1944,
      "foot": 1945,
      "ene": 1946,
      "148": 1947,
      "mass": 1948,
      "power": 1949,
      "kir": 1950,
      "Sch": 1951,
      "https": 1952,
      "mot": 1953,
      "ultur": 1954,
      "super": 1955,
      "mann": 1956,
      "195": 1957,
      "formations": 1958,
      "stock": 1959,
      "xx": 1960,
      "nic": 1961,
      "144": 1962,
      "139": 1963,
      "---": 1964,
      "vest": 1965,
      "tit": 1966,
      "zel": 1967,
      "count": 1968,
      "iver": 1969,
      "custom": 1970,
      "brid": 1971,
      "till": 1972,
      "mis": 1973,
      "ueber": 1974,
      "produits": 1975,
      "328": 1976,
      "vit": 1977,
      "west": 1978,
      "try": 1979,
      "impressum": 1980,
      "-/": 1981,
      "rz": 1982,
      "wynikow": 1983,
      "syn": 1984,
      "table": 1985,
      "gg": 1986,
      "185": 1987,
      "big": 1988,
      "dre": 1989,
      "mart": 1990,
      "AD": 1991,
      "ied": 1992,
      "party": 1993,
      "eC": 1994,
      "kul": 1995,
      "ios": 1996,
      "ON": 1997,
      "156": 1998,
      "help": 1999,
      "kalender": 2000,
      "975": 2001,
      "165": 2002,
      "von": 2003,
      "color": 2004,
      "enie": 2005,
      "List": 2006,
      "217": 2007,
      "hd": 2008,
      "digital": 2009,
      "vil": 2010,
      "magaz": 2011,
      "kov": 2012,
      "158": 2013,
      "ident": 2014,
      "168": 2015,
      "mt": 2016,
      "TE": 2017,
      "sky": 2018,
      "pin": 2019,
      "zie": 2020,
      "instit": 2021,
      "yu": 2022,
      "303": 2023,
      "tage": 2024,
      "nal": 2025,
      "mic": 2026,
      "ping": 2027,
      "/_": 2028,
      "ah": 2029,
      "154": 2030,
      "255": 2031,
      "mad": 2032,
      "apo": 2033,
      "stud": 2034,
      "bok": 2035,
      "faq": 2036,
      "univers": 2037,
      "ider": 2038,
      "hop": 2039,
      "auction": 2040,
      "976": 2041,
      "paris": 2042,
      "match": 2043,
      "bul": 2044,
      "204": 2045,
      "members": 2046,
      "tryo": 2047,
      "coup": 2048,
      "977": 2049,
      "information": 2050,
      "aty": 2051,
      "ession": 2052,
      "buy": 2053,
      "type": 2054,
      "md": 2055,
      "LE": 2056,
      "tan": 2057,
      "cla": 2058,
      "life": 2059,
      "kla": 2060,
      "peter": 2061,
      "exper": 2062,
      "tryohkomnatnaya": 2063,
      "old": 2064,
      "oz": 2065,
      "kow": 2066,
      "but": 2067,
      "ij": 2068,
      "rent": 2069,
      "aktualnosci": 2070,
      "linux": 2071,
      "charact": 2072,
      "kw": 2073,
      "fd": 2074,
      "174": 2075,
      "ams": 2076,
      "fen": 2077,
      "nyh": 2078,
      "167": 2079,
      "235": 2080,
      "deutsch": 2081,
      "166": 2082,
      "tax": 2083,
      "197": 2084,
      "ras": 2085,
      "180": 2086,
      "letter": 2087,
      "183": 2088,
      "skij": 2089,
      "wort": 2090,
      "245": 2091,
      "ref": 2092,
      "ueck": 2093,
      "documents": 2094,
      "Con": 2095,
      "niki": 2096,
      "slots": 2097,
      "209": 2098,
      "ification": 2099,
      "bur": 2100,
      "149": 2101,
      "ima": 2102,
      "location": 2103,
      "aker": 2104,
      "management": 2105,
      "gest": 2106,
      "announcements": 2107,
      "food": 2108,
      "hp": 2109,
      "alle": 2110,
      "186": 2111,
      "Ver": 2112,
      "menu": 2113,
      "accessories": 2114,
      "character": 2115,
      "elekt": 2116,
      "open": 2117,
      "iche": 2118,
      "schlag": 2119,
      "termine": 2120,
      "196": 2121,
      "Ġ/%": 2122,
      "endar": 2123,
      "head": 2124,
      "275": 2125,
      "kap": 2126,
      "Com": 2127,
      "nr": 2128,
      "aqu": 2129,
      "ris": 2130,
      "/+/": 2131,
      "cab": 2132,
      "water": 2133,
      "profil": 2134,
      "ato": 2135,
      "ular": 2136,
      "medic": 2137,
      "187": 2138,
      "comment": 2139,
      "works": 2140,
      "sand": 2141,
      "dienst": 2142,
      "dol": 2143,
      "viv": 2144,
      "high": 2145,
      "words": 2146,
      "308": 2147,
      "cover": 2148,
      "cker": 2149,
      "kauf": 2150,
      "212": 2151,
      "159": 2152,
      "fron": 2153,
      "160": 2154,
      "tab": 2155,
      "ney": 2156,
      "pas": 2157,
      "christ": 2158,
      "ese": 2159,
      "ford": 2160,
      "engine": 2161,
      "gir": 2162,
      "uth": 2163,
      "els": 2164,
      "pon": 2165,
      "vert": 2166,
      "700": 2167,
      "188": 2168,
      "podcast": 2169,
      "iday": 2170,
      "ror": 2171,
      "sex": 2172,
      "BA": 2173,
      "door": 2174,
      "265": 2175,
      "CH": 2176,
      "ipe": 2177,
      "wohn": 2178,
      "dt": 2179,
      "305": 2180,
      "lear": 2181,
      "256": 2182,
      "306": 2183,
      "ola": 2184,
      "mini": 2185,
      "dim": 2186,
      "camp": 2187,
      "run": 2188,
      "full": 2189,
      "prote": 2190,
      "::": 2191,
      "Le": 2192,
      "pm": 2193,
      "ote": 2194,
      "film": 2195,
      "800": 2196,
      "yki": 2197,
      "bilder": 2198,
      "kn": 2199,
      "227": 2200,
      "zab": 2201,
      "roy": 2202,
      "603": 2203,
      "405": 2204,
      "topics": 2205,
      "bonus": 2206,
      "national": 2207,
      "KB": 2208,
      "feat": 2209,
      "406": 2210,
      "evo": 2211,
      "169": 2212,
      "ico": 2213,
      "cn": 2214,
      "locations": 2215,
      "acja": 2216,
      "gs": 2217,
      "267": 2218,
      "427": 2219,
      "bidgallery": 2220,
      "ember": 2221,
      "lik": 2222,
      "zubehoer": 2223,
      "tas": 2224,
      "dit": 2225,
      "catalogue": 2226,
      "schul": 2227,
      "ovo": 2228,
      "304": 2229,
      "ener": 2230,
      "galerie": 2231,
      "smart": 2232,
      "ipt": 2233,
      "307": 2234,
      "2004": 2235,
      "presse": 2236,
      "NU": 2237,
      "OR": 2238,
      "ders": 2239,
      "189": 2240,
      "BE": 2241,
      "your": 2242,
      "issu": 2243,
      "tain": 2244,
      "compare": 2245,
      "ett": 2246,
      "baidu": 2247,
      "werk": 2248,
      "phar": 2249,
      "school": 2250,
      "nyj": 2251,
      "pour": 2252,
      "403": 2253,
      "musical": 2254,
      "andro": 2255,
      "010": 2256,
      "sung": 2257,
      "179": 2258,
      "stan": 2259,
      "199": 2260,
      "CA": 2261,
      "sites": 2262,
      "295": 2263,
      "document": 2264,
      "posit": 2265,
      "heim": 2266,
      "impressions": 2267,
      "2000": 2268,
      "categories": 2269,
      "ofer": 2270,
      "237": 2271,
      "well": 2272,
      "kaz": 2273,
      "what": 2274,
      "avis": 2275,
      "jp": 2276,
      "eM": 2277,
      "cra": 2278,
      "wen": 2279,
      "ners": 2280,
      "iu": 2281,
      "green": 2282,
      "unser": 2283,
      "niy": 2284,
      "logo": 2285,
      "hil": 2286,
      "case": 2287,
      "sep": 2288,
      "actualites": 2289,
      "fact": 2290,
      "pop": 2291,
      "stroy": 2292,
      "datenschutz": 2293,
      "229": 2294,
      "lish": 2295,
      "IS": 2296,
      "228": 2297,
      "psy": 2298,
      "zes": 2299,
      "fitness": 2300,
      "marketing": 2301,
      "eco": 2302,
      "bac": 2303,
      "natur": 2304,
      "wir": 2305,
      "gloss": 2306,
      "mode": 2307,
      "226": 2308,
      "goda": 2309,
      "buch": 2310,
      "Med": 2311,
      "face": 2312,
      "ado": 2313,
      "ati": 2314,
      "zam": 2315,
      "247": 2316,
      "hab": 2317,
      "bay": 2318,
      "nar": 2319,
      "heit": 2320,
      "num": 2321,
      "projekt": 2322,
      "yan": 2323,
      "det": 2324,
      "inal": 2325,
      "257": 2326,
      "jet": 2327,
      "text": 2328,
      "econ": 2329,
      "uter": 2330,
      "ograph": 2331,
      "schaft": 2332,
      "kinder": 2333,
      "maz": 2334,
      "leistungen": 2335,
      "mium": 2336,
      "portal": 2337,
      "oly": 2338,
      "164": 2339,
      "mik": 2340,
      "cje": 2341,
      "issues": 2342,
      "289": 2343,
      "203": 2344,
      "ikon": 2345,
      "account": 2346,
      "raz": 2347,
      "uge": 2348,
      "dest": 2349,
      "2005": 2350,
      "social": 2351,
      "brow": 2352,
      "lt": 2353,
      "rid": 2354,
      "198": 2355,
      "ligne": 2356,
      "ars": 2357,
      "ID": 2358,
      "ert": 2359,
      "sten": 2360,
      "ulture": 2361,
      "153": 2362,
      "sin": 2363,
      "mov": 2364,
      "wall": 2365,
      "women": 2366,
      "Artic": 2367,
      "vr": 2368,
      "ervice": 2369,
      "ania": 2370,
      "244": 2371,
      "kas": 2372,
      "lip": 2373,
      "dzie": 2374,
      "102": 2375,
      "skle": 2376,
      "boutique": 2377,
      "epis": 2378,
      "hon": 2379,
      "sun": 2380,
      "vtor": 2381,
      "internet": 2382,
      "zap": 2383,
      "arty": 2384,
      "chat": 2385,
      "258": 2386,
      "mand": 2387,
      "rit": 2388,
      "inte": 2389,
      "js": 2390,
      "285": 2391,
      "commer": 2392,
      "dly": 2393,
      "body": 2394,
      "pict": 2395,
      "she": 2396,
      "248": 2397,
      "football": 2398,
      "ped": 2399,
      "dev": 2400,
      "termin": 2401,
      "cken": 2402,
      "365": 2403,
      "407": 2404,
      "eB": 2405,
      "produkter": 2406,
      "yer": 2407,
      "ora": 2408,
      "mid": 2409,
      "143": 2410,
      "Deta": 2411,
      "101": 2412,
      "uro": 2413,
      "rajon": 2414,
      "lon": 2415,
      "LA": 2416,
      "238": 2417,
      "FR": 2418,
      "kel": 2419,
      "base": 2420,
      "350": 2421,
      "mv": 2422,
      "policy": 2423,
      "jer": 2424,
      "hot": 2425,
      "mod": 2426,
      "lis": 2427,
      "vtorich": 2428,
      "arth": 2429,
      "cow": 2430,
      "299": 2431,
      "wil": 2432,
      "rict": 2433,
      "esh": 2434,
      "ori": 2435,
      "mr": 2436,
      "236": 2437,
      "ution": 2438,
      "unit": 2439,
      "268": 2440,
      "239": 2441,
      "bank": 2442,
      "turn": 2443,
      "stadt": 2444,
      "publications": 2445,
      "under": 2446,
      "abr": 2447,
      "287": 2448,
      "Ch": 2449,
      "ights": 2450,
      "manager": 2451,
      "LO": 2452,
      "ez": 2453,
      "answer": 2454,
      "240": 2455,
      "nyheter": 2456,
      "En": 2457,
      "isen": 2458,
      "pis": 2459,
      "276": 2460,
      "drive": 2461,
      "246": 2462,
      "sar": 2463,
      "hmen": 2464,
      "privatkunden": 2465,
      "feb": 2466,
      "193": 2467,
      "ule": 2468,
      "gh": 2469,
      "short": 2470,
      "279": 2471,
      "367": 2472,
      "friendly": 2473,
      "194": 2474,
      "ui": 2475,
      "297": 2476,
      "referen": 2477,
      "sankt": 2478,
      "/-/": 2479,
      "owe": 2480,
      "269": 2481,
      "pel": 2482,
      "player": 2483,
      "259": 2484,
      "lich": 2485,
      "ship": 2486,
      "ami": 2487,
      "urt": 2488,
      "atel": 2489,
      "184": 2490,
      "202": 2491,
      "wand": 2492,
      "klub": 2493,
      "refs": 2494,
      "you": 2495,
      "noe": 2496,
      "family": 2497,
      "android": 2498,
      "bir": 2499,
      "teile": 2500,
      "oires": 2501,
      "lette": 2502,
      "ray": 2503,
      "rie": 2504,
      "industr": 2505,
      "ume": 2506,
      "ichte": 2507,
      "anim": 2508,
      "BB": 2509,
      "ES": 2510,
      "seiten": 2511,
      "inos": 2512,
      "163": 2513,
      "price": 2514,
      "pogoda": 2515,
      "eid": 2516,
      "cze": 2517,
      "browse": 2518,
      "360": 2519,
      "kanaly": 2520,
      "uns": 2521,
      "ous": 2522,
      "mark": 2523,
      "izh": 2524,
      "zahl": 2525,
      "scre": 2526,
      "ulica": 2527,
      "170": 2528,
      "secur": 2529,
      "bibli": 2530,
      "skoe": 2531,
      "190": 2532,
      "prim": 2533,
      "lov": 2534,
      "filter": 2535,
      "eo": 2536,
      "Co": 2537,
      "entre": 2538,
      "rain": 2539,
      "orig": 2540,
      "bildung": 2541,
      "travel": 2542,
      "itu": 2543,
      "249": 2544,
      "movie": 2545,
      "district": 2546,
      "inc": 2547,
      "oria": 2548,
      "chro": 2549,
      "radio": 2550,
      "annonces": 2551,
      "437": 2552,
      "ony": 2553,
      "spar": 2554,
      "dok": 2555,
      "lab": 2556,
      "tware": 2557,
      "112": 2558,
      "288": 2559,
      "deal": 2560,
      "ll": 2561,
      "point": 2562,
      "sny": 2563,
      "wis": 2564,
      "nel": 2565,
      "173": 2566,
      "econom": 2567,
      "dress": 2568,
      "Lo": 2569,
      "distr": 2570,
      "weg": 2571,
      "stellen": 2572,
      "355": 2573,
      "fem": 2574,
      "baby": 2575,
      "ason": 2576,
      "ffe": 2577,
      "studiya": 2578,
      "ipo": 2579,
      "rese": 2580,
      "langu": 2581,
      "fal": 2582,
      "peterburg": 2583,
      "area": 2584,
      "277": 2585,
      "phil": 2586,
      "230": 2587,
      "grup": 2588,
      "298": 2589,
      "kultur": 2590,
      "oi": 2591,
      "iphone": 2592,
      "conne": 2593,
      "row": 2594,
      "member": 2595,
      "Article": 2596,
      "nap": 2597,
      "europe": 2598,
      "schlagwort": 2599,
      "action": 2600,
      "atz": 2601,
      "kovo": 2602,
      "training": 2603,
      "266": 2604,
      "anc": 2605,
      "309": 2606,
      "447": 2607,
      "url": 2608,
      "rt": 2609,
      "iers": 2610,
      "stories": 2611,
      "emploi": 2612,
      "was": 2613,
      "git": 2614,
      "eller": 2615,
      "sza": 2616,
      "ktion": 2617,
      "novostroyki": 2618,
      "Mar": 2619,
      "337": 2620,
      "ales": 2621,
      "bund": 2622,
      "278": 2623,
      "solutions": 2624,
      "dru": 2625,
      "rech": 2626,
      "klass": 2627,
      "eder": 2628,
      "grat": 2629,
      "ikes": 2630,
      "week": 2631,
      "gorod": 2632,
      "bild": 2633,
      "yn": 2634,
      "1404": 2635,
      "venue": 2636,
      "techno": 2637,
      "embed": 2638,
      "xl": 2639,
      "damen": 2640,
      "cation": 2641,
      "time": 2642,
      "cook": 2643,
      "ival": 2644,
      "jac": 2645,
      "szkol": 2646,
      "hc": 2647,
      "aga": 2648,
      "leb": 2649,
      "pip": 2650,
      "396": 2651,
      "ingrad": 2652,
      "sg": 2653,
      "ience": 2654,
      "AT": 2655,
      "dungen": 2656,
      "ella": 2657,
      "lia": 2658,
      "cup": 2659,
      "krasno": 2660,
      "368": 2661,
      "357": 2662,
      "develop": 2663,
      "autor": 2664,
      "ari": 2665,
      "Pr": 2666,
      "398": 2667,
      "kino": 2668,
      "Er": 2669,
      "order": 2670,
      "snyat": 2671,
      "286": 2672,
      "swe": 2673,
      "ized": 2674,
      "asse": 2675,
      "istr": 2676,
      "trail": 2677,
      "webstore": 2678,
      "property": 2679,
      "hard": 2680,
      "296": 2681,
      "grand": 2682,
      "markt": 2683,
      "esp": 2684,
      "cine": 2685,
      "beautification": 2686,
      "bis": 2687,
      "234": 2688,
      "privacy": 2689,
      "icz": 2690,
      "gard": 2691,
      "cul": 2692,
      "pou": 2693,
      "tis": 2694,
      "kty": 2695,
      "jam": 2696,
      "kart": 2697,
      "theat": 2698,
      "itel": 2699,
      "berlin": 2700,
      "ester": 2701,
      "latest": 2702,
      "unt": 2703,
      "iger": 2704,
      "eur": 2705,
      "gesch": 2706,
      "pflege": 2707,
      "journ": 2708,
      "UR": 2709,
      "1403": 2710,
      "111": 2711,
      "bot": 2712,
      "hic": 2713,
      "gia": 2714,
      "koy": 2715,
      "look": 2716,
      "vas": 2717,
      "chem": 2718,
      "motor": 2719,
      "software": 2720,
      "usa": 2721,
      "rock": 2722,
      "270": 2723,
      "zd": 2724,
      "jour": 2725,
      "tos": 2726,
      "eln": 2727,
      "rh": 2728,
      "zar": 2729,
      "347": 2730,
      "calendar": 2731,
      "lee": 2732,
      "czne": 2733,
      "samsung": 2734,
      "kry": 2735,
      "243": 2736,
      "ierung": 2737,
      "nd": 2738,
      "rost": 2739,
      "lj": 2740,
      "409": 2741,
      "Ro": 2742,
      "pum": 2743,
      "fall": 2744,
      "gE": 2745,
      "iele": 2746,
      "brands": 2747,
      "lets": 2748,
      "adom": 2749,
      "downloads": 2750,
      "therap": 2751,
      "bach": 2752,
      "legal": 2753,
      "projekte": 2754,
      "esse": 2755,
      "iro": 2756,
      "lav": 2757,
      "scr": 2758,
      "356": 2759,
      "know": 2760,
      "005": 2761,
      "produkty": 2762,
      "foret": 2763,
      "anal": 2764,
      "soci": 2765,
      "copy": 2766,
      "has": 2767,
      "fac": 2768,
      "gran": 2769,
      "IT": 2770,
      "ila": 2771,
      "marketplace": 2772,
      "kro": 2773,
      "wish": 2774,
      "beg": 2775,
      "408": 2776,
      "invent": 2777,
      "cord": 2778,
      "fiel": 2779,
      "LT": 2780,
      "stein": 2781,
      "math": 2782,
      "frei": 2783,
      "plate": 2784,
      "448": 2785,
      "310": 2786,
      "ative": 2787,
      "ake": 2788,
      "338": 2789,
      "culture": 2790,
      "output": 2791,
      "fan": 2792,
      "studio": 2793,
      "enz": 2794,
      "appl": 2795,
      "reze": 2796,
      "watch": 2797,
      "007": 2798,
      "imon": 2799,
      "accessoires": 2800,
      "ives": 2801,
      "ases": 2802,
      "concert": 2803,
      "wordpress": 2804,
      "kli": 2805,
      "00224": 2806,
      "290": 2807,
      "346": 2808,
      "welt": 2809,
      "375": 2810,
      "lug": 2811,
      "aj": 2812,
      "insk": 2813,
      "ql": 2814,
      "dome": 2815,
      "455": 2816,
      "tens": 2817,
      "pur": 2818,
      "mitgl": 2819,
      "road": 2820,
      "check": 2821,
      "446": 2822,
      "395": 2823,
      "ST": 2824,
      "graf": 2825,
      "ating": 2826,
      "seis": 2827,
      "ateg": 2828,
      "kai": 2829,
      "icher": 2830,
      "ox": 2831,
      "fy": 2832,
      "cp": 2833,
      "orte": 2834,
      "liste": 2835,
      "libr": 2836,
      "konzer": 2837,
      "EX": 2838,
      "366": 2839,
      "john": 2840,
      "ific": 2841,
      "cts": 2842,
      "uv": 2843,
      "equip": 2844,
      "chan": 2845,
      "804": 2846,
      "peri": 2847,
      "opt": 2848,
      "authors": 2849,
      "german": 2850,
      "ende": 2851,
      "dos": 2852,
      "003": 2853,
      "immobilien": 2854,
      "umen": 2855,
      "other": 2856,
      "unterne": 2857,
      "eh": 2858,
      "education": 2859,
      "walt": 2860,
      "metal": 2861,
      "itz": 2862,
      "ards": 2863,
      "pli": 2864,
      "pul": 2865,
      "mix": 2866,
      "wix": 2867,
      "CO": 2868,
      "iw": 2869,
      "457": 2870,
      "from": 2871,
      "plug": 2872,
      "dj": 2873,
      "non": 2874,
      "global": 2875,
      "promo": 2876,
      "style": 2877,
      "For": 2878,
      "lass": 2879,
      "biz": 2880,
      "utility": 2881,
      "partement": 2882,
      "385": 2883,
      "417": 2884,
      "253": 2885,
      "arr": 2886,
      "The": 2887,
      "sti": 2888,
      "src": 2889,
      "378": 2890,
      "1003": 2891,
      "ihnach": 2892,
      "349": 2893,
      "zim": 2894,
      "slot": 2895,
      "ates": 2896,
      "348": 2897,
      "fach": 2898,
      "hair": 2899,
      "ering": 2900,
      "olit": 2901,
      "vac": 2902,
      "wed": 2903,
      "silver": 2904,
      "sign": 2905,
      "369": 2906,
      "mk": 2907,
      "institutions": 2908,
      "ople": 2909,
      "wagen": 2910,
      "260": 2911,
      "pte": 2912,
      "long": 2913,
      "004": 2914,
      "254": 2915,
      "shopbrand": 2916,
      "iner": 2917,
      "ali": 2918,
      "richt": 2919,
      "div": 2920,
      "tow": 2921,
      "zt": 2922,
      "licence": 2923,
      "destin": 2924,
      "spir": 2925,
      "format": 2926,
      "ances": 2927,
      "install": 2928,
      "thes": 2929,
      "377": 2930,
      "AM": 2931,
      "mig": 2932,
      "ingen": 2933,
      "prz": 2934,
      "388": 2935,
      "mir": 2936,
      "358": 2937,
      "233": 2938,
      "witch": 2939,
      "ussion": 2940,
      "006": 2941,
      "una": 2942,
      "458": 2943,
      "research": 2944,
      "399": 2945,
      "jecia": 2946,
      "deces": 2947,
      "arbeit": 2948,
      "ises": 2949,
      "theatre": 2950,
      "Pages": 2951,
      "Se": 2952,
      "aro": 2953,
      "sklep": 2954,
      "offre": 2955,
      "201": 2956,
      "ization": 2957,
      "zeug": 2958,
      "IC": 2959,
      "sco": 2960,
      "vehic": 2961,
      "ials": 2962,
      "475": 2963,
      "rub": 2964,
      "atten": 2965,
      "456": 2966,
      "iches": 2967,
      "Ex": 2968,
      "inar": 2969,
      "uehr": 2970,
      "eP": 2971,
      "warz": 2972,
      "hf": 2973,
      "264": 2974,
      "2003": 2975,
      "ides": 2976,
      "ences": 2977,
      "vw": 2978,
      "lg": 2979,
      "359": 2980,
      "sour": 2981,
      "famil": 2982,
      "BF": 2983,
      "zi": 2984,
      "294": 2985,
      "auth": 2986,
      "00000": 2987,
      "ware": 2988,
      "space": 2989,
      "gemein": 2990,
      "cit": 2991,
      "jug": 2992,
      "share": 2993,
      "arts": 2994,
      "lou": 2995,
      "vill": 2996,
      "isation": 2997,
      "icherung": 2998,
      "hit": 2999,
      "BD": 3000,
      "ueh": 3001,
      "122": 3002,
      "386": 3003,
      "gas": 3004,
      "zent": 3005,
      "Son": 3006,
      "veg": 3007,
      "erin": 3008,
      "jn": 3009,
      "274": 3010,
      "cept": 3011,
      "iet": 3012,
      "medical": 3013,
      "zenia": 3014,
      "pun": 3015,
      "invest": 3016,
      "logie": 3017,
      "075": 3018,
      "uaire": 3019,
      "284": 3020,
      "winter": 3021,
      "love": 3022,
      "ueil": 3023,
      "asso": 3024,
      "ei": 3025,
      "arm": 3026,
      "hm": 3027,
      "uts": 3028,
      "produktu": 3029,
      "categorie": 3030,
      "yi": 3031,
      ".-": 3032,
      "kue": 3033,
      "kho": 3034,
      "journal": 3035,
      "gt": 3036,
      "maps": 3037,
      "exter": 3038,
      "TER": 3039,
      "english": 3040,
      "yr": 3041,
      "roman": 3042,
      "vir": 3043,
      "nocle": 3044,
      "sdk": 3045,
      "rag": 3046,
      "960": 3047,
      "hum": 3048,
      "009": 3049,
      "leben": 3050,
      "anze": 3051,
      "trib": 3052,
      "ole": 3053,
      "zw": 3054,
      "rc": 3055,
      "restaurant": 3056,
      "annuaire": 3057,
      "see": 3058,
      "angel": 3059,
      "note": 3060,
      "kf": 3061,
      "premium": 3062,
      "office": 3063,
      "gn": 3064,
      "pic": 3065,
      "450": 3066,
      "387": 3067,
      "roulette": 3068,
      "tips": 3069,
      "people": 3070,
      "reise": 3071,
      "verein": 3072,
      "hof": 3073,
      "sko": 3074,
      "485": 3075,
      "tip": 3076,
      "kies": 3077,
      "bou": 3078,
      "313": 3079,
      "security": 3080,
      "language": 3081,
      "hub": 3082,
      "ody": 3083,
      "click": 3084,
      "iou": 3085,
      "AU": 3086,
      "ieder": 3087,
      "1037": 3088,
      "wydar": 3089,
      "lor": 3090,
      "468": 3091,
      "flor": 3092,
      "single": 3093,
      "II": 3094,
      "ury": 3095,
      "arg": 3096,
      "ingradskaya": 3097,
      "inventory": 3098,
      "pac": 3099,
      "fla": 3100,
      "unde": 3101,
      "ego": 3102,
      "build": 3103,
      "lens": 3104,
      "acje": 3105,
      "essen": 3106,
      "dorf": 3107,
      "firmen": 3108,
      "tov": 3109,
      "cir": 3110,
      "request": 3111,
      "bran": 3112,
      "holiday": 3113,
      "rose": 3114,
      "cell": 3115,
      "bn": 3116,
      "poly": 3117,
      "meg": 3118,
      "remon": 3119,
      "eA": 3120,
      "eT": 3121,
      "movies": 3122,
      "entity": 3123,
      "apple": 3124,
      "esc": 3125,
      "recht": 3126,
      "sed": 3127,
      "enia": 3128,
      "ticket": 3129,
      "fire": 3130,
      "PL": 3131,
      "380": 3132,
      "nyy": 3133,
      "igner": 3134,
      "329": 3135,
      "pv": 3136,
      "pier": 3137,
      "ues": 3138,
      "wl": 3139,
      "oferta": 3140,
      "logist": 3141,
      "394": 3142,
      "mbh": 3143,
      "152": 3144,
      "comments": 3145,
      "iques": 3146,
      "ave": 3147,
      "kategoria": 3148,
      "465": 3149,
      "rund": 3150,
      "bere": 3151,
      "isi": 3152,
      "cus": 3153,
      "121": 3154,
      "tennis": 3155,
      "442": 3156,
      "uncategor": 3157,
      "280": 3158,
      "MT": 3159,
      "ersch": 3160,
      "para": 3161,
      "warsza": 3162,
      "accueil": 3163,
      "law": 3164,
      "utes": 3165,
      "340": 3166,
      "mf": 3167,
      "spel": 3168,
      "diam": 3169,
      "mur": 3170,
      "008": 3171,
      "MI": 3172,
      "etazh": 3173,
      "495": 3174,
      "ME": 3175,
      "clu": 3176,
      "host": 3177,
      "fuehr": 3178,
      "illa": 3179,
      "alex": 3180,
      "675": 3181,
      "397": 3182,
      "dn": 3183,
      "chev": 3184,
      "nou": 3185,
      "ibir": 3186,
      "479": 3187,
      "389": 3188,
      "Mo": 3189,
      "gH": 3190,
      "kunst": 3191,
      "alia": 3192,
      "kommun": 3193,
      "rus": 3194,
      "314": 3195,
      "prov": 3196,
      "daily": 3197,
      "379": 3198,
      "elektro": 3199,
      "cx": 3200,
      "svet": 3201,
      "schule": 3202,
      "weihnach": 3203,
      "tru": 3204,
      "bj": 3205,
      "wiss": 3206,
      "chel": 3207,
      "osci": 3208,
      "zeuge": 3209,
      "585": 3210,
      "785": 3211,
      "irts": 3212,
      "questions": 3213,
      "zn": 3214,
      "ao": 3215,
      "hj": 3216,
      "..": 3217,
      "isk": 3218,
      "pole": 3219,
      "chin": 3220,
      "deutschland": 3221,
      "unternehmen": 3222,
      "classic": 3223,
      "002": 3224,
      "parts": 3225,
      "galeria": 3226,
      "audi": 3227,
      "ashion": 3228,
      "inf": 3229,
      "hall": 3230,
      "richten": 3231,
      "1005": 3232,
      "msg": 3233,
      "directory": 3234,
      "angebot": 3235,
      "activity": 3236,
      "132": 3237,
      "control": 3238,
      "ree": 3239,
      "tl": 3240,
      "dokument": 3241,
      "ader": 3242,
      "aer": 3243,
      "496": 3244,
      "asi": 3245,
      "dg": 3246,
      "uber": 3247,
      "manu": 3248,
      "standard": 3249,
      "459": 3250,
      "486": 3251,
      "piper": 3252,
      "469": 3253,
      "qual": 3254,
      "rozklad": 3255,
      "263": 3256,
      "cinek": 3257,
      "gmbh": 3258,
      "colum": 3259,
      "Tech": 3260,
      "register": 3261,
      "stol": 3262,
      "make": 3263,
      "odcin": 3264,
      "technik": 3265,
      "element": 3266,
      "376": 3267,
      "SK": 3268,
      "lek": 3269,
      "first": 3270,
      "Detail": 3271,
      "lists": 3272,
      "gin": 3273,
      "cars": 3274,
      "TH": 3275,
      "ape": 3276,
      "nord": 3277,
      "To": 3278,
      "lagen": 3279,
      "dog": 3280,
      "central": 3281,
      "449": 3282,
      "cons": 3283,
      "rim": 3284,
      "odcinek": 3285,
      "487": 3286,
      "outlet": 3287,
      "themen": 3288,
      "ova": 3289,
      "466": 3290,
      "bitstre": 3291,
      "oga": 3292,
      "477": 3293,
      "ond": 3294,
      "fle": 3295,
      "hood": 3296,
      "ension": 3297,
      "ather": 3298,
      "435": 3299,
      "cross": 3300,
      "tut": 3301,
      "plans": 3302,
      "hip": 3303,
      "personal": 3304,
      "PT": 3305,
      "chy": 3306,
      "ager": 3307,
      "lib": 3308,
      "anne": 3309,
      "dm": 3310,
      "select": 3311,
      "fut": 3312,
      "learning": 3313,
      "demo": 3314,
      "467": 3315,
      "profession": 3316,
      "name": 3317,
      "316": 3318,
      "315": 3319,
      "425": 3320,
      "488": 3321,
      "general": 3322,
      "odcinki": 3323,
      "323": 3324,
      "888": 3325,
      "occas": 3326,
      "aks": 3327,
      "rj": 3328,
      "eth": 3329,
      "489": 3330,
      "336": 3331,
      "alter": 3332,
      "logia": 3333,
      "liche": 3334,
      "ifen": 3335,
      "lux": 3336,
      "989": 3337,
      "pair": 3338,
      "039": 3339,
      "przy": 3340,
      "prze": 3341,
      "ague": 3342,
      "vente": 3343,
      "create": 3344,
      "website": 3345,
      "ipote": 3346,
      "327": 3347,
      "config": 3348,
      "artykul": 3349,
      "schwarz": 3350,
      "GB": 3351,
      "kluby": 3352,
      "zajecia": 3353,
      "MA": 3354,
      "979": 3355,
      "andre": 3356,
      "hib": 3357,
      "505": 3358,
      "cand": 3359,
      "sok": 3360,
      "stal": 3361,
      "iser": 3362,
      "lage": 3363,
      "prise": 3364,
      "gk": 3365,
      "berat": 3366,
      "library": 3367,
      "fab": 3368,
      "334": 3369,
      "pipermail": 3370,
      "ante": 3371,
      "greek": 3372,
      "jap": 3373,
      "holm": 3374,
      "plast": 3375,
      "hat": 3376,
      "iew": 3377,
      "original": 3378,
      "connect": 3379,
      "Products": 3380,
      "1443": 3381,
      "novos": 3382,
      "nogo": 3383,
      "muse": 3384,
      "partic": 3385,
      "night": 3386,
      "grund": 3387,
      "ttes": 3388,
      "wishlist": 3389,
      "noclegi": 3390,
      "Home": 3391,
      "mitglieder": 3392,
      "ani": 3393,
      "university": 3394,
      "front": 3395,
      "131": 3396,
      "garten": 3397,
      "anna": 3398,
      "newsletter": 3399,
      "fres": 3400,
      "cke": 3401,
      "sortiment": 3402,
      "igung": 3403,
      "gF": 3404,
      "999": 3405,
      "slo": 3406,
      "ills": 3407,
      "moscow": 3408,
      "iff": 3409,
      "viron": 3410,
      "smo": 3411,
      "nav": 3412,
      "aries": 3413,
      "088": 3414,
      "zak": 3415,
      "festival": 3416,
      "piz": 3417,
      "deco": 3418,
      "069": 3419,
      "achat": 3420,
      "ius": 3421,
      "ism": 3422,
      "schuhe": 3423,
      "roll": 3424,
      "kk": 3425,
      "bitstreams": 3426,
      "development": 3427,
      "410": 3428,
      "pad": 3429,
      "etz": 3430,
      "antes": 3431,
      "ym": 3432,
      "ober": 3433,
      "network": 3434,
      "))/": 3435,
      "feature": 3436,
      "season": 3437,
      "boo": 3438,
      "xia": 3439,
      "aktiv": 3440,
      "Un": 3441,
      "nachrichten": 3442,
      "fashion": 3443,
      "andr": 3444,
      "980": 3445,
      "rein": 3446,
      "ples": 3447,
      "essel": 3448,
      "tak": 3449,
      "amental": 3450,
      "988": 3451,
      "leningradskaya": 3452,
      "pd": 3453,
      "wear": 3454,
      "pn": 3455,
      "obje": 3456,
      "085": 3457,
      "models": 3458,
      "Ġ/_": 3459,
      "steller": 3460,
      "suche": 3461,
      "seo": 3462,
      "sha": 3463,
      "xw": 3464,
      "designer": 3465,
      "478": 3466,
      "quot": 3467,
      "txt": 3468,
      "390": 3469,
      "nika": 3470,
      "Sh": 3471,
      "956": 3472,
      "versicherung": 3473,
      "champ": 3474,
      "Bo": 3475,
      "335": 3476,
      "imer": 3477,
      "tin": 3478,
      "hoch": 3479,
      "Ġ/(": 3480,
      "side": 3481,
      "atics": 3482,
      "insights": 3483,
      "zum": 3484,
      "1214": 3485,
      "436": 3486,
      "uecher": 3487,
      "325": 3488,
      "oire": 3489,
      "mapamental": 3490,
      "living": 3491,
      "_-": 3492,
      "call": 3493,
      "gry": 3494,
      "He": 3495,
      "Or": 3496,
      "intl": 3497,
      "own": 3498,
      "quiz": 3499,
      "disc": 3500,
      "coach": 3501,
      "syl": 3502,
      "meet": 3503,
      "RS": 3504,
      "Po": 3505,
      "677": 3506,
      "065": 3507,
      "ize": 3508,
      "656": 3509,
      "rozklady": 3510,
      "bien": 3511,
      "flow": 3512,
      "switch": 3513,
      "tourn": 3514,
      "dex": 3515,
      "listings": 3516,
      "mie": 3517,
      "eD": 3518,
      "machine": 3519,
      "warszawa": 3520,
      "1400": 3521,
      "318": 3522,
      "ege": 3523,
      "tg": 3524,
      "655": 3525,
      "ends": 3526,
      "batter": 3527,
      "440": 3528,
      "ags": 3529,
      "317": 3530,
      "]/%": 3531,
      "077": 3532,
      "wash": 3533,
      "nad": 3534,
      "weiss": 3535,
      "ones": 3536,
      "634": 3537,
      "anti": 3538,
      "transport": 3539,
      "ded": 3540,
      "ules": 3541,
      "319": 3542,
      "waltung": 3543,
      "mebel": 3544,
      "rs": 3545,
      "555": 3546,
      "zna": 3547,
      "mn": 3548,
      "xa": 3549,
      "434": 3550,
      "geber": 3551,
      "moto": 3552,
      "ever": 3553,
      "enf": 3554,
      "meldung": 3555,
      "sle": 3556,
      "969": 3557,
      "ork": 3558,
      "957": 3559,
      "311": 3560,
      "035": 3561,
      "076": 3562,
      "destinations": 3563,
      "Hy": 3564,
      "atory": 3565,
      "rezepte": 3566,
      "476": 3567,
      "GR": 3568,
      "mx": 3569,
      "142": 3570,
      "onia": 3571,
      "voy": 3572,
      "mazda": 3573,
      "international": 3574,
      "480": 3575,
      "IA": 3576,
      "ints": 3577,
      "rel": 3578,
      "history": 3579,
      "occasion": 3580,
      "nok": 3581,
      "anda": 3582,
      "unch": 3583,
      "370": 3584,
      "nature": 3585,
      "magazin": 3586,
      "416": 3587,
      "tiny": 3588,
      "modules": 3589,
      "326": 3590,
      "itaet": 3591,
      "riere": 3592,
      "429": 3593,
      "basket": 3594,
      "screen": 3595,
      "serie": 3596,
      "pool": 3597,
      "MH": 3598,
      "jahr": 3599,
      "967": 3600,
      "rand": 3601,
      "986": 3602,
      "OL": 3603,
      "TX": 3604,
      "IL": 3605,
      "offers": 3606,
      "uble": 3607,
      "moder": 3608,
      "985": 3609,
      "cad": 3610,
      "nut": 3611,
      "clean": 3612,
      "unsere": 3613,
      "cafe": 3614,
      "skal": 3615,
      "zastroy": 3616,
      "324": 3617,
      "Local": 3618,
      "038": 3619,
      "year": 3620,
      "schutz": 3621,
      "320": 3622,
      "tek": 3623,
      "spring": 3624,
      "landing": 3625,
      "bert": 3626,
      "426": 3627,
      "size": 3628,
      "eden": 3629,
      "057": 3630,
      "hod": 3631,
      "advan": 3632,
      "este": 3633,
      "novosibir": 3634,
      "shirts": 3635,
      "barn": 3636,
      "ret": 3637,
      "066": 3638,
      "048": 3639,
      "isa": 3640,
      "141": 3641,
      "catel": 3642,
      "777": 3643,
      "ame": 3644,
      "diag": 3645,
      "ross": 3646,
      "oring": 3647,
      "zial": 3648,
      "eia": 3649,
      "lager": 3650,
      "gyna": 3651,
      "vad": 3652,
      "vard": 3653,
      "889": 3654,
      "leit": 3655,
      "sf": 3656,
      "script": 3657,
      "955": 3658,
      "DF": 3659,
      "ogrod": 3660,
      "mies": 3661,
      "remont": 3662,
      "spa": 3663,
      "rathaus": 3664,
      "965": 3665,
      "037": 3666,
      "sens": 3667,
      "het": 3668,
      "ente": 3669,
      "jeux": 3670,
      "itemap": 3671,
      "jl": 3672,
      "paid": 3673,
      "056": 3674,
      "united": 3675,
      "asser": 3676,
      "wiz": 3677,
      "analy": 3678,
      "more": 3679,
      "OT": 3680,
      "sets": 3681,
      "core": 3682,
      "geb": 3683,
      "asia": 3684,
      "qa": 3685,
      "halt": 3686,
      "spra": 3687,
      "wd": 3688,
      "alcatel": 3689,
      "987": 3690,
      "968": 3691,
      "fiche": 3692,
      "047": 3693,
      "151": 3694,
      "221": 3695,
      "046": 3696,
      "overview": 3697,
      "SA": 3698,
      "ryadom": 3699,
      "IR": 3700,
      "658": 3701,
      "ucht": 3702,
      "438": 3703,
      "field": 3704,
      "eno": 3705,
      "055": 3706,
      "udo": 3707,
      "micro": 3708,
      "uncategorized": 3709,
      "zastroysch": 3710,
      "magazine": 3711,
      "workshop": 3712,
      "finan": 3713,
      "ktor": 3714,
      "ters": 3715,
      "mens": 3716,
      "097": 3717,
      "rd": 3718,
      "sche": 3719,
      "ties": 3720,
      "bt": 3721,
      "liga": 3722,
      "server": 3723,
      "657": 3724,
      "lub": 3725,
      "maths": 3726,
      "bli": 3727,
      "966": 3728,
      "record": 3729,
      "iry": 3730,
      "bmw": 3731,
      "445": 3732,
      "photograph": 3733,
      "conse": 3734,
      "eG": 3735,
      "environ": 3736,
      "question": 3737,
      "epit": 3738,
      "hus": 3739,
      "instr": 3740,
      "audiobooks": 3741,
      "sitemap": 3742,
      "yle": 3743,
      "uenc": 3744,
      "419": 3745,
      "sne": 3746,
      "states": 3747,
      "sx": 3748,
      "AZ": 3749,
      "tle": 3750,
      "222": 3751,
      "ationen": 3752,
      "bru": 3753,
      "dition": 3754,
      "energ": 3755,
      "terms": 3756,
      "erservice": 3757,
      "ird": 3758,
      "pant": 3759,
      "behor": 3760,
      "095": 3761,
      "jm": 3762,
      "gab": 3763,
      "067": 3764,
      "ione": 3765,
      "rona": 3766,
      "750": 3767,
      "soft": 3768,
      "idung": 3769,
      "sau": 3770,
      "Man": 3771,
      "storage": 3772,
      "kes": 3773,
      "312": 3774,
      "utzer": 3775,
      "oph": 3776,
      "040": 3777,
      "osh": 3778,
      "jewel": 3779,
      "fly": 3780,
      "staff": 3781,
      "holz": 3782,
      "ican": 3783,
      "commerce": 3784,
      "sac": 3785,
      "vag": 3786,
      "decor": 3787,
      "sey": 3788,
      "panel": 3789,
      "kaufen": 3790,
      "nt": 3791,
      "678": 3792,
      "vtorichke": 3793,
      "Fe": 3794,
      "releases": 3795,
      "beratung": 3796,
      "austr": 3797,
      "http": 3798,
      "rap": 3799,
      "lauf": 3800,
      "maj": 3801,
      "tee": 3802,
      "salon": 3803,
      "lp": 3804,
      "amen": 3805,
      "kred": 3806,
      "1212": 3807,
      "ikt": 3808,
      "trag": 3809,
      "ula": 3810,
      "factur": 3811,
      "omy": 3812,
      "town": 3813,
      "irs": 3814,
      "162": 3815,
      "yota": 3816,
      "cry": 3817,
      "north": 3818,
      "We": 3819,
      "bei": 3820,
      "959": 3821,
      "producto": 3822,
      "VR": 3823,
      "aster": 3824,
      "ledge": 3825,
      "folders": 3826,
      "418": 3827,
      "remontom": 3828,
      "ovka": 3829,
      "TERN": 3830,
      "wirt": 3831,
      "bundes": 3832,
      "sig": 3833,
      "bike": 3834,
      "reisen": 3835,
      "spiele": 3836,
      "cv": 3837,
      "nung": 3838,
      "deli": 3839,
      "agent": 3840,
      "xis": 3841,
      "000000": 3842,
      "mam": 3843,
      "087": 3844,
      "Fo": 3845,
      "intro": 3846,
      "aseis": 3847,
      "411": 3848,
      "xe": 3849,
      "hk": 3850,
      "aten": 3851,
      "1213": 3852,
      "gp": 3853,
      "bilar": 3854,
      "pha": 3855,
      "098": 3856,
      "676": 3857,
      "compet": 3858,
      "acade": 3859,
      "tainment": 3860,
      "technology": 3861,
      "099": 3862,
      "application": 3863,
      "Spe": 3864,
      "339": 3865,
      "BR": 3866,
      "bst": 3867,
      "jugend": 3868,
      "yj": 3869,
      "gastro": 3870,
      "icip": 3871,
      "DS": 3872,
      "dw": 3873,
      "just": 3874,
      "mikro": 3875,
      "eme": 3876,
      "jar": 3877,
      "rug": 3878,
      "Mon": 3879,
      "Ther": 3880,
      "tat": 3881,
      "hotels": 3882,
      "ashley": 3883,
      "etazhnom": 3884,
      "cru": 3885,
      "dent": 3886,
      "058": 3887,
      "iran": 3888,
      "ipes": 3889,
      "enger": 3890,
      "423": 3891,
      "420": 3892,
      "Res": 3893,
      "dow": 3894,
      "stry": 3895,
      "polo": 3896,
      "dal": 3897,
      "yar": 3898,
      "apps": 3899,
      "klaerung": 3900,
      "021": 3901,
      "evenement": 3902,
      "asa": 3903,
      "update": 3904,
      "fast": 3905,
      "gottes": 3906,
      "413": 3907,
      "uren": 3908,
      "kop": 3909,
      "iles": 3910,
      "igen": 3911,
      "fru": 3912,
      "mittel": 3913,
      "eva": 3914,
      "cms": 3915,
      "460": 3916,
      "casinos": 3917,
      "ela": 3918,
      "096": 3919,
      "associ": 3920,
      "song": 3921,
      "UN": 3922,
      "happ": 3923,
      "stick": 3924,
      "nost": 3925,
      "rav": 3926,
      "666": 3927,
      "ffee": 3928,
      "nya": 3929,
      "ensk": 3930,
      "IE": 3931,
      "beta": 3932,
      "mission": 3933,
      "Go": 3934,
      "russ": 3935,
      "036": 3936,
      "express": 3937,
      "np": 3938,
      "AP": 3939,
      "kent": 3940,
      "aire": 3941,
      "wahl": 3942,
      "086": 3943,
      "Ste": 3944,
      "ated": 3945,
      "wet": 3946,
      "indi": 3947,
      "958": 3948,
      "1038": 3949,
      "shopping": 3950,
      "049": 3951,
      "IV": 3952,
      "kaya": 3953,
      "sales": 3954,
      "470": 3955,
      "afr": 3956,
      "spor": 3957,
      "places": 3958,
      "particip": 3959,
      "068": 3960,
      "omi": 3961,
      "taxon": 3962,
      "zad": 3963,
      "TERNAL": 3964,
      "calcul": 3965,
      "emit": 3966,
      "beach": 3967,
      "EXTERNAL": 3968,
      "bie": 3969,
      "summer": 3970,
      "programs": 3971,
      "entertainment": 3972,
      "module": 3973,
      "lay": 3974,
      "strateg": 3975,
      "Be": 3976,
      "030": 3977,
      "ense": 3978,
      "immobilier": 3979,
      "change": 3980,
      "homes": 3981,
      "blu": 3982,
      "hein": 3983,
      "musik": 3984,
      "079": 3985,
      "ehr": 3986,
      "078": 3987,
      "axy": 3988,
      "chap": 3989,
      "089": 3990,
      "1036": 3991,
      "message": 3992,
      "fg": 3993,
      "kno": 3994,
      "marken": 3995,
      "ande": 3996,
      "191": 3997,
      "uell": 3998,
      "lock": 3999,
      "estate": 4000,
      "415": 4001,
      "rank": 4002,
      "acion": 4003,
      "artiklar": 4004,
      "proc": 4005,
      "aments": 4006,
      "cj": 4007,
      "oa": 4008,
      "liter": 4009,
      "MO": 4010,
      "SonList": 4011,
      "424": 4012,
      "wid": 4013,
      "659": 4014,
      "uli": 4015,
      "679": 4016,
      "La": 4017,
      "497": 4018,
      "cg": 4019,
      "stelle": 4020,
      "rig": 4021,
      "satz": 4022,
      "formation": 4023,
      "283": 4024,
      "eH": 4025,
      "tank": 4026,
      "490": 4027,
      "politik": 4028,
      "forman": 4029,
      "tm": 4030,
      "AK": 4031,
      "chast": 4032,
      "episode": 4033,
      "municip": 4034,
      "ito": 4035,
      "zenie": 4036,
      "ved": 4037,
      "ible": 4038,
      "kreis": 4039,
      "NE": 4040,
      "links": 4041,
      "gera": 4042,
      "ebok": 4043,
      "museum": 4044,
      "252": 4045,
      "172": 4046,
      "hamburg": 4047,
      "bp": 4048,
      "cgi": 4049,
      "070": 4050,
      "country": 4051,
      "display": 4052,
      "xi": 4053,
      "yz": 4054,
      "skin": 4055,
      "spr": 4056,
      "059": 4057,
      "chu": 4058,
      "bh": 4059,
      "frank": 4060,
      "heads": 4061,
      "tou": 4062,
      "bk": 4063,
      "yw": 4064,
      "klin": 4065,
      "wers": 4066,
      "akers": 4067,
      "knowledge": 4068,
      "wic": 4069,
      "oss": 4070,
      "senior": 4071,
      "equipment": 4072,
      "tik": 4073,
      "cham": 4074,
      "Sta": 4075,
      "ilder": 4076,
      "loss": 4077,
      "lead": 4078,
      "assist": 4079,
      "oter": 4080,
      "ieren": 4081,
      "cut": 4082,
      "obitu": 4083,
      "pharmac": 4084,
      "marke": 4085,
      "protection": 4086,
      "293": 4087,
      "properties": 4088,
      "273": 4089,
      "pink": 4090,
      "mata": 4091,
      "erie": 4092,
      "villa": 4093,
      "lm": 4094,
      "ogo": 4095,
      "mary": 4096,
      "oda": 4097,
      "tests": 4098,
      "Im": 4099,
      "voro": 4100,
      "ith": 4101,
      "-.": 4102,
      "karten": 4103,
      "181": 4104,
      "pract": 4105,
      "gun": 4106,
      "ago": 4107,
      "mast": 4108,
      "hybrid": 4109,
      "novosibirsk": 4110,
      "mom": 4111,
      "CT": 4112,
      "dur": 4113,
      "060": 4114,
      "spo": 4115,
      "ista": 4116,
      "league": 4117,
      "firmenkunden": 4118,
      "stage": 4119,
      "iste": 4120,
      "498": 4121,
      "ample": 4122,
      "856": 4123,
      "orge": 4124,
      "hos": 4125,
      "archite": 4126,
      "datenschutzer": 4127,
      "agement": 4128,
      "daten": 4129,
      "release": 4130,
      "favor": 4131,
      "tz": 4132,
      "third": 4133,
      "rena": 4134,
      "niz": 4135,
      "jewelry": 4136,
      "eine": 4137,
      "jah": 4138,
      "orts": 4139,
      "Par": 4140,
      "owy": 4141,
      "atur": 4142,
      "gesund": 4143,
      "nab": 4144,
      "050": 4145,
      "customer": 4146,
      "gan": 4147,
      "programy": 4148,
      "inger": 4149,
      "mari": 4150,
      "rang": 4151,
      "glas": 4152,
      "moe": 4153,
      "annel": 4154,
      "orsk": 4155,
      "650": 4156,
      "manufactur": 4157,
      "412": 4158,
      "repair": 4159,
      "AB": 4160,
      "vom": 4161,
      "college": 4162,
      "osi": 4163,
      "germany": 4164,
      "sj": 4165,
      "231": 4166,
      "delar": 4167,
      "igke": 4168,
      "galaxy": 4169,
      "erc": 4170,
      "neck": 4171,
      "fect": 4172,
      "evenements": 4173,
      "appartement": 4174,
      "161": 4175,
      "171": 4176,
      "1035": 4177,
      "ersatz": 4178,
      "gree": 4179,
      "RV": 4180,
      "ili": 4181,
      "dot": 4182,
      "perifer": 4183,
      "kleidung": 4184,
      "shar": 4185,
      "ohne": 4186,
      "bibliote": 4187,
      "prem": 4188,
      "FQF": 4189,
      "comics": 4190,
      "iti": 4191,
      "ief": 4192,
      "spekt": 4193,
      "attachments": 4194,
      "coupons": 4195,
      "south": 4196,
      "small": 4197,
      "teams": 4198,
      "vip": 4199,
      "america": 4200,
      "zle": 4201,
      "dp": 4202,
      "lamp": 4203,
      "paign": 4204,
      "182": 4205,
      "email": 4206,
      "chik": 4207,
      "080": 4208,
      "192": 4209,
      "fund": 4210,
      "kad": 4211,
      "naj": 4212,
      "umar": 4213,
      "PR": 4214,
      "1006": 4215,
      "uslug": 4216,
      "rela": 4217,
      "kosmet": 4218,
      "Per": 4219,
      "cos": 4220,
      "669": 4221,
      "ateur": 4222,
      "MD": 4223,
      "bak": 4224,
      "multi": 4225,
      "bud": 4226,
      "428": 4227,
      "atic": 4228,
      "Surg": 4229,
      "fur": 4230,
      "CC": 4231,
      "advent": 4232,
      "threads": 4233,
      "pieces": 4234,
      "artists": 4235,
      "outdoor": 4236,
      "electric": 4237,
      "aires": 4238,
      "dez": 4239,
      "beauty": 4240,
      "sob": 4241,
      "study": 4242,
      "yt": 4243,
      "thing": 4244,
      "voiture": 4245,
      "fag": 4246,
      "aka": 4247,
      "pak": 4248,
      "242": 4249,
      "kolts": 4250,
      "whe": 4251,
      "alon": 4252,
      "kem": 4253,
      "stone": 4254,
      "reporting": 4255,
      "zwe": 4256,
      "272": 4257,
      "857": 4258,
      "877": 4259,
      "oil": 4260,
      "state": 4261,
      "Post": 4262,
      "ious": 4263,
      "432": 4264,
      "redirect": 4265,
      "wlo": 4266,
      "wire": 4267,
      "rv": 4268,
      "eti": 4269,
      "PRO": 4270,
      "result": 4271,
      "Au": 4272,
      "nw": 4273,
      "bia": 4274,
      "vision": 4275,
      "istration": 4276,
      "VAF": 4277,
      "herren": 4278,
      "dag": 4279,
      "232": 4280,
      "IQG": 4281,
      "tutor": 4282,
      "uelle": 4283,
      "414": 4284,
      "jg": 4285,
      "hg": 4286,
      "iva": 4287,
      "zon": 4288,
      "xs": 4289,
      "present": 4290,
      "oglo": 4291,
      "262": 4292,
      "girls": 4293,
      "sak": 4294,
      "ady": 4295,
      "MP": 4296,
      "mia": 4297,
      "858": 4298,
      "lera": 4299,
      "recher": 4300,
      "perifereia": 4301,
      "desk": 4302,
      "291": 4303,
      "tri": 4304,
      "groups": 4305,
      "clin": 4306,
      "pros": 4307,
      "rostov": 4308,
      "referenzen": 4309,
      "Therap": 4310,
      "vend": 4311,
      "TO": 4312,
      "krasnodar": 4313,
      "vt": 4314,
      "yout": 4315,
      "gla": 4316,
      "boy": 4317,
      "fn": 4318,
      "dzien": 4319,
      "society": 4320,
      "virt": 4321,
      "mex": 4322,
      "albums": 4323,
      "hov": 4324,
      "lack": 4325,
      "bow": 4326,
      "consult": 4327,
      "mill": 4328,
      "950": 4329,
      "cis": 4330,
      "kredit": 4331,
      "251": 4332,
      "source": 4333,
      "JP": 4334,
      "visions": 4335,
      "pit": 4336,
      "lines": 4337,
      "ming": 4338,
      "exam": 4339,
      "rw": 4340,
      "iseis": 4341,
      "pend": 4342,
      "779": 4343,
      "lights": 4344,
      "wG": 4345,
      "sicher": 4346,
      "ail": 4347,
      "katerin": 4348,
      "constru": 4349,
      "sous": 4350,
      "restaurants": 4351,
      "ismus": 4352,
      "ades": 4353,
      "kier": 4354,
      "players": 4355,
      "facebook": 4356,
      "come": 4357,
      "agram": 4358,
      "labor": 4359,
      "datenschutzerklaerung": 4360,
      "bast": 4361,
      "unte": 4362,
      "recipe": 4363,
      "platz": 4364,
      "offres": 4365,
      "agon": 4366,
      "756": 4367,
      "performan": 4368,
      "epitro": 4369,
      "855": 4370,
      "wydarzenia": 4371,
      "lum": 4372,
      "deposit": 4373,
      "876": 4374,
      "557": 4375,
      "ael": 4376,
      "banking": 4377,
      "rac": 4378,
      "squ": 4379,
      "kitchen": 4380,
      "instrument": 4381,
      "iam": 4382,
      "yy": 4383,
      "tisch": 4384,
      "iq": 4385,
      "whis": 4386,
      "lement": 4387,
      "241": 4388,
      "cture": 4389,
      "556": 4390,
      "odzie": 4391,
      "eve": 4392,
      "454": 4393,
      "dark": 4394,
      "arta": 4395,
      "egen": 4396,
      "kswagen": 4397,
      "flex": 4398,
      "emitteil": 4399,
      "uy": 4400,
      "zeich": 4401,
      "marques": 4402,
      "mash": 4403,
      "stva": 4404,
      "344": 4405,
      "Je": 4406,
      "RK": 4407,
      "alum": 4408,
      "spot": 4409,
      "sach": 4410,
      "BAL": 4411,
      "VAG": 4412,
      "zx": 4413,
      "zur": 4414,
      "668": 4415,
      "1500": 4416,
      "manual": 4417,
      "exhib": 4418,
      "ballet": 4419,
      "494": 4420,
      "reib": 4421,
      "iana": 4422,
      "campaign": 4423,
      "novgorod": 4424,
      "bron": 4425,
      "kurse": 4426,
      "mut": 4427,
      "px": 4428,
      "hua": 4429,
      "jevents": 4430,
      "hersteller": 4431,
      "olog": 4432,
      "ET": 4433,
      "pw": 4434,
      "yoga": 4435,
      "fis": 4436,
      "Jo": 4437,
      "aquatics": 4438,
      "NY": 4439,
      "komp": 4440,
      "island": 4441,
      "gw": 4442,
      "weiter": 4443,
      "borg": 4444,
      "VAE": 4445,
      "YQG": 4446,
      "money": 4447,
      "Wo": 4448,
      "990": 4449,
      "fern": 4450,
      "868": 4451,
      "outlets": 4452,
      "finanz": 4453,
      "778": 4454,
      "step": 4455,
      "svetlera": 4456,
      "eF": 4457,
      "katerinburg": 4458,
      "skalender": 4459,
      "fas": 4460,
      "oft": 4461,
      "lifest": 4462,
      "Th": 4463,
      "massage": 4464,
      "td": 4465,
      "nee": 4466,
      "302": 4467,
      "YQH": 4468,
      "erson": 4469,
      "karriere": 4470,
      "bolee": 4471,
      "agency": 4472,
      "rss": 4473,
      "zero": 4474,
      "sept": 4475,
      "lesson": 4476,
      "Page": 4477,
      "usz": 4478,
      "tern": 4479,
      "zimmer": 4480,
      "treat": 4481,
      "won": 4482,
      "900": 4483,
      "allen": 4484,
      "aff": 4485,
      "IMG": 4486,
      "missions": 4487,
      "find": 4488,
      "goodscode": 4489,
      "konzert": 4490,
      "feld": 4491,
      "idential": 4492,
      "886": 4493,
      "opin": 4494,
      "oglosz": 4495,
      "found": 4496,
      "block": 4497,
      "lier": 4498,
      "sea": 4499,
      "jes": 4500,
      "tun": 4501,
      "statt": 4502,
      "tyumen": 4503,
      "rl": 4504,
      "ktur": 4505,
      "wan": 4506,
      "887": 4507,
      "lifestyle": 4508,
      "foer": 4509,
      "confer": 4510,
      "202511": 4511,
      "333": 4512,
      "sql": 4513,
      "konto": 4514,
      "phys": 4515,
      "county": 4516,
      "354": 4517,
      "barcel": 4518,
      "NT": 4519,
      "gaz": 4520,
      "1024": 4521,
      "integr": 4522,
      "stream": 4523,
      "970": 4524,
      "875": 4525,
      "odes": 4526,
      "alu": 4527,
      "attende": 4528,
      "span": 4529,
      "iot": 4530,
      "fro": 4531,
      "month": 4532,
      "reifen": 4533,
      "psycho": 4534,
      "ander": 4535,
      "271": 4536,
      "353": 4537,
      "xn": 4538,
      "innen": 4539,
      "uebers": 4540,
      "developer": 4541,
      "mol": 4542,
      "850": 4543,
      "kj": 4544,
      "gram": 4545,
      "VV": 4546,
      "advert": 4547,
      "ccess": 4548,
      "muen": 4549,
      "lod": 4550,
      "martin": 4551,
      "pow": 4552,
      "schools": 4553,
      "NC": 4554,
      "vous": 4555,
      "verwaltung": 4556,
      "instagram": 4557,
      "869": 4558,
      "canada": 4559,
      "ido": 4560,
      "frame": 4561,
      "anzeige": 4562,
      "fw": 4563,
      "cket": 4564,
      "ziel": 4565,
      "fileadmin": 4566,
      "775": 4567,
      "hang": 4568,
      "poi": 4569,
      "090": 4570,
      "machines": 4571,
      "mak": 4572,
      "bewer": 4573,
      "2002": 4574,
      "amt": 4575,
      "basic": 4576,
      "berry": 4577,
      "jean": 4578,
      "wild": 4579,
      "ismos": 4580,
      "uj": 4581,
      "gruen": 4582,
      "gift": 4583,
      "template": 4584,
      "879": 4585,
      "schaf": 4586,
      "omet": 4587,
      "rik": 4588,
      "mep": 4589,
      "japan": 4590,
      "hund": 4591,
      "cesoria": 4592,
      "owa": 4593,
      "cele": 4594,
      "Ġ/-": 4595,
      "KBT": 4596,
      "559": 4597,
      "intel": 4598,
      "adv": 4599,
      "gang": 4600,
      "label": 4601,
      "agF": 4602,
      "flu": 4603,
      "gynaike": 4604,
      "buerg": 4605,
      "uchs": 4606,
      "glossar": 4607,
      "flash": 4608,
      "GLO": 4609,
      "visit": 4610,
      "281": 4611,
      "364": 4612,
      "external": 4613,
      "uc": 4614,
      "550": 4615,
      "extra": 4616,
      "wiel": 4617,
      "oder": 4618,
      "moebel": 4619,
      "oma": 4620,
      "393": 4621,
      "dienste": 4622,
      "will": 4623,
      "jag": 4624,
      "feeds": 4625,
      "dry": 4626,
      "EQH": 4627,
      "stav": 4628,
      "auctions": 4629,
      "tool": 4630,
      "otdel": 4631,
      "follow": 4632,
      "SC": 4633,
      "nash": 4634,
      "science": 4635,
      "jeu": 4636,
      "augu": 4637,
      "OK": 4638,
      "prospekt": 4639,
      "lap": 4640,
      "command": 4641,
      "participant": 4642,
      "fix": 4643,
      "freizeit": 4644,
      "alo": 4645,
      "alla": 4646,
      "tickets": 4647,
      "zip": 4648,
      "Default": 4649,
      "stockholm": 4650,
      "urance": 4651,
      "878": 4652,
      "859": 4653,
      "environment": 4654,
      "pb": 4655,
      "579": 4656,
      "292": 4657,
      "rynok": 4658,
      "261": 4659,
      "041": 4660,
      "rg": 4661,
      "stag": 4662,
      "orange": 4663,
      "jj": 4664,
      "vm": 4665,
      "607": 4666,
      "_/": 4667,
      "pich": 4668,
      "active": 4669,
      "apart": 4670,
      "bahn": 4671,
      "grey": 4672,
      "appli": 4673,
      "sommer": 4674,
      "chasti": 4675,
      "promot": 4676,
      "689": 4677,
      "sym": 4678,
      "onim": 4679,
      "Qu": 4680,
      "rok": 4681,
      "444": 4682,
      "organiz": 4683,
      "LP": 4684,
      "ew": 4685,
      "lebens": 4686,
      "sell": 4687,
      "eK": 4688,
      "384": 4689,
      "vtorichniy": 4690,
      "GLOBAL": 4691,
      "dekor": 4692,
      "ellen": 4693,
      "510": 4694,
      "ful": 4695,
      "paul": 4696,
      "gebnis": 4697,
      "iale": 4698,
      "kis": 4699,
      "rez": 4700,
      "proion": 4701,
      "ettes": 4702,
      "So": 4703,
      "ability": 4704,
      "ress": 4705,
      "packages": 4706,
      "ear": 4707,
      "rf": 4708,
      "383": 4709,
      "akcesoria": 4710,
      "Col": 4711,
      "ND": 4712,
      "doors": 4713,
      "ativ": 4714,
      "ient": 4715,
      "tillbehor": 4716,
      "provid": 4717,
      "renault": 4718,
      "tx": 4719,
      "eq": 4720,
      "iii": 4721,
      "sprz": 4722,
      "sd": 4723,
      "evro": 4724,
      "thom": 4725,
      "uslugi": 4726,
      "remo": 4727,
      "poker": 4728,
      "most": 4729,
      "On": 4730,
      "commod": 4731,
      "TR": 4732,
      "terrain": 4733,
      "teach": 4734,
      "Car": 4735,
      "brown": 4736,
      "sver": 4737,
      "toy": 4738,
      "saf": 4739,
      "previsions": 4740,
      "assen": 4741,
      "toyota": 4742,
      "ferien": 4743,
      "ishing": 4744,
      "happy": 4745,
      "El": 4746,
      "proble": 4747,
      "SP": 4748,
      "testimon": 4749,
      "attendees": 4750,
      "iaz": 4751,
      "fotos": 4752,
      "cade": 4753,
      "dir": 4754,
      "coffee": 4755,
      "section": 4756,
      "mai": 4757,
      "buergerservice": 4758,
      "heiten": 4759,
      "sus": 4760,
      "charity": 4761,
      "dh": 4762,
      "053": 4763,
      "icon": 4764,
      "gum": 4765,
      "ogH": 4766,
      "emp": 4767,
      "cool": 4768,
      "like": 4769,
      "sse": 4770,
      "ugG": 4771,
      "558": 4772,
      "volkswagen": 4773,
      "berichte": 4774,
      "fp": 4775,
      "Ġ/-/": 4776,
      "regional": 4777,
      "kabel": 4778,
      "chor": 4779,
      "him": 4780,
      "atr": 4781,
      "karte": 4782,
      "garden": 4783,
      "330": 4784,
      "sb": 4785,
      "757": 4786,
      "cw": 4787,
      "lete": 4788,
      "nea": 4789,
      "itions": 4790,
      "diction": 4791,
      "strona": 4792,
      "eN": 4793,
      "compan": 4794,
      "322": 4795,
      "notes": 4796,
      "acz": 4797,
      "areas": 4798,
      "ugF": 4799,
      "yl": 4800,
      "vlad": 4801,
      "1018": 4802,
      "double": 4803,
      "formular": 4804,
      "arab": 4805,
      "282": 4806,
      "EB": 4807,
      "fair": 4808,
      "dining": 4809,
      "pressemitteil": 4810,
      "zapchasti": 4811,
      "coo": 4812,
      "muck": 4813,
      "natural": 4814,
      "picture": 4815,
      "fk": 4816,
      "aktuell": 4817,
      "paro": 4818,
      "girl": 4819,
      "wald": 4820,
      "edia": 4821,
      "stoff": 4822,
      "soc": 4823,
      "fuss": 4824,
      "tours": 4825,
      "level": 4826,
      "Rad": 4827,
      "two": 4828,
      "351": 4829,
      "speaker": 4830,
      "374": 4831,
      "wasser": 4832,
      "kasy": 4833,
      "allgemein": 4834,
      "saison": 4835,
      "sci": 4836,
      "leuch": 4837,
      "363": 4838,
      "issue": 4839,
      "performance": 4840,
      "theme": 4841,
      "chil": 4842,
      "nag": 4843,
      "czny": 4844,
      "monit": 4845,
      "awards": 4846,
      "484": 4847,
      "kia": 4848,
      "womens": 4849,
      "fotograf": 4850,
      "1009": 4851,
      "1004": 4852,
      "View": 4853,
      "fm": 4854,
      "expert": 4855,
      "client": 4856,
      "EF": 4857,
      "oli": 4858,
      "lv": 4859,
      "0003": 4860,
      "rob": 4861,
      "bres": 4862,
      "zeg": 4863,
      "GP": 4864,
      "slub": 4865,
      "yp": 4866,
      "mein": 4867,
      "avec": 4868,
      "CD": 4869,
      "isse": 4870,
      "464": 4871,
      "Ho": 4872,
      "Fa": 4873,
      "kz": 4874,
      "kehr": 4875,
      "ses": 4876,
      "ports": 4877,
      "golden": 4878,
      "gastronom": 4879,
      "channel": 4880,
      "Te": 4881,
      "druck": 4882,
      "jr": 4883,
      "thon": 4884,
      "nc": 4885,
      "femme": 4886,
      "473": 4887,
      "343": 4888,
      "BL": 4889,
      "guest": 4890,
      "018": 4891,
      "rece": 4892,
      "rier": 4893,
      "Lab": 4894,
      "alp": 4895,
      "gym": 4896,
      "hilfe": 4897,
      "trip": 4898,
      "glossary": 4899,
      "usion": 4900,
      "eries": 4901,
      "adu": 4902,
      "exerc": 4903,
      "statist": 4904,
      "1008": 4905,
      "partners": 4906,
      "drama": 4907,
      "eshop": 4908,
      "776": 4909,
      "cream": 4910,
      "EL": 4911,
      "Top": 4912,
      "publik": 4913,
      "cities": 4914,
      "deb": 4915,
      "fli": 4916,
      "juli": 4917,
      "iev": 4918,
      "cement": 4919,
      "ilar": 4920,
      "373": 4921,
      "lace": 4922,
      "messe": 4923,
      "careers": 4924,
      "eL": 4925,
      "zig": 4926,
      "stvo": 4927,
      "KA": 4928,
      "innov": 4929,
      "features": 4930,
      "2001": 4931,
      "391": 4932,
      "dienstleistungen": 4933,
      "IP": 4934,
      "buecher": 4935,
      "jest": 4936,
      "EC": 4937,
      "doro": 4938,
      "geraete": 4939,
      "enn": 4940,
      "382": 4941,
      "506": 4942,
      "samoch": 4943,
      "zahlung": 4944,
      "361": 4945,
      "baum": 4946,
      "legales": 4947,
      "diet": 4948,
      "dad": 4949,
      "farbe": 4950,
      "depart": 4951,
      "ask": 4952,
      "lue": 4953,
      "tok": 4954,
      "ansicht": 4955,
      "neue": 4956,
      "hh": 4957,
      "mind": 4958,
      "calculator": 4959,
      "issan": 4960,
      "process": 4961,
      "pus": 4962,
      "synonim": 4963,
      "kot": 4964,
      "energy": 4965,
      "wka": 4966,
      "332": 4967,
      "dess": 4968,
      "iert": 4969,
      "pizza": 4970,
      "prod": 4971,
      "953": 4972,
      "transfer": 4973,
      "china": 4974,
      "schla": 4975,
      "undai": 4976,
      "dash": 4977,
      "fj": 4978,
      "arbeiter": 4979,
      "597": 4980,
      "laub": 4981,
      "amin": 4982,
      "vivre": 4983,
      "SS": 4984,
      "ump": 4985,
      "blick": 4986,
      "692": 4987,
      "lowe": 4988,
      "puz": 4989,
      "474": 4990,
      "glass": 4991,
      "industry": 4992,
      "Veranstalt": 4993,
      "hin": 4994,
      "friday": 4995,
      "suk": 4996,
      "Tr": 4997,
      "barcelona": 4998,
      "bm": 4999,
      "stueck": 5000,
      "nau": 5001,
      "bekleidung": 5002,
      "uni": 5003,
      "esta": 5004,
      "483": 5005,
      "secre": 5006,
      "schw": 5007,
      "hur": 5008,
      "569": 5009,
      "argent": 5010,
      "San": 5011,
      "papier": 5012,
      "453": 5013,
      "608": 5014,
      "arbet": 5015,
      "comic": 5016,
      "zzak": 5017,
      "whats": 5018,
      "758": 5019,
      "doma": 5020,
      "nast": 5021,
      "Ag": 5022,
      "ural": 5023,
      "drug": 5024,
      "isme": 5025,
      "christmas": 5026,
      "plugins": 5027,
      "owo": 5028,
      "edy": 5029,
      "abil": 5030,
      "private": 5031,
      "systems": 5032,
      "gress": 5033,
      "ausstell": 5034,
      "sid": 5035,
      "ador": 5036,
      "eye": 5037,
      "SW": 5038,
      "392": 5039,
      "query": 5040,
      "tol": 5041,
      "578": 5042,
      "mentions": 5043,
      "pri": 5044,
      "ally": 5045,
      "503": 5046,
      "anth": 5047,
      "-/-": 5048,
      "1025": 5049,
      "amaz": 5050,
      "nike": 5051,
      "recipes": 5052,
      "nier": 5053,
      "null": 5054,
      "352": 5055,
      "stores": 5056,
      "iga": 5057,
      "magic": 5058,
      "volunte": 5059,
      "fuel": 5060,
      "gd": 5061,
      "eW": 5062,
      "Ph": 5063,
      "Service": 5064,
      "stin": 5065,
      "agne": 5066,
      "skap": 5067,
      "chenie": 5068,
      "pk": 5069,
      "monolit": 5070,
      "talk": 5071,
      "frag": 5072,
      "bai": 5073,
      "sante": 5074,
      "mehr": 5075,
      "504": 5076,
      "nan": 5077,
      "ionen": 5078,
      "apof": 5079,
      "wordslists": 5080,
      "bam": 5081,
      "984": 5082,
      "nj": 5083,
      "produk": 5084,
      "finance": 5085,
      "wei": 5086,
      "companies": 5087,
      "feder": 5088,
      "iso": 5089,
      "Her": 5090,
      "ife": 5091,
      "463": 5092,
      "noel": 5093,
      "ography": 5094,
      "UM": 5095,
      "lemm": 5096,
      "Ad": 5097,
      "bott": 5098,
      "ekaterinburg": 5099,
      "vanie": 5100,
      "slides": 5101,
      "bereich": 5102,
      "wc": 5103,
      "fahrzeug": 5104,
      "gynaikeia": 5105,
      "eJ": 5106,
      "954": 5107,
      "izin": 5108,
      "ffen": 5109,
      "praxis": 5110,
      "histoire": 5111,
      "reports": 5112,
      "sit": 5113,
      "annonce": 5114,
      "1019": 5115,
      "indiv": 5116,
      "331": 5117,
      "noir": 5118,
      "gon": 5119,
      "eral": 5120,
      "fronten": 5121,
      "kamp": 5122,
      "shoes": 5123,
      "learn": 5124,
      "alpha": 5125,
      "quick": 5126,
      "friends": 5127,
      "bing": 5128,
      "lank": 5129,
      "made": 5130,
      "buer": 5131,
      "frueh": 5132,
      "academy": 5133,
      "ersatzteile": 5134,
      "ffer": 5135,
      "steel": 5136,
      "types": 5137,
      "evka": 5138,
      "565": 5139,
      "NA": 5140,
      "zdro": 5141,
      "443": 5142,
      "honda": 5143,
      "deck": 5144,
      "sul": 5145,
      "uses": 5146,
      "All": 5147,
      "bell": 5148,
      "sab": 5149,
      "uba": 5150,
      "version": 5151,
      "994": 5152,
      "jen": 5153,
      "miet": 5154,
      "uary": 5155,
      "reis": 5156,
      "kob": 5157,
      "759": 5158,
      "distrib": 5159,
      "uebersicht": 5160,
      "oth": 5161,
      "tages": 5162,
      "fahrzeuge": 5163,
      "konom": 5164,
      "profiles": 5165,
      "meteo": 5166,
      "nings": 5167,
      "jas": 5168,
      "673": 5169,
      "ugh": 5170,
      "divers": 5171,
      "Care": 5172,
      "episodes": 5173,
      "ronic": 5174,
      "writ": 5175,
      "automation": 5176,
      "individu": 5177,
      "expl": 5178,
      "sad": 5179,
      "034": 5180,
      "SH": 5181,
      "ikos": 5182,
      "mate": 5183,
      "wod": 5184,
      "babs": 5185,
      "hausen": 5186,
      "fh": 5187,
      "ean": 5188,
      "pact": 5189,
      "poy": 5190,
      "cookies": 5191,
      "ultra": 5192,
      "dates": 5193,
      "athon": 5194,
      "kim": 5195,
      "urit": 5196,
      "IQH": 5197,
      "gratu": 5198,
      "dup": 5199,
      "domain": 5200,
      "itemlist": 5201,
      "rio": 5202,
      "Di": 5203,
      "iden": 5204,
      "019": 5205,
      "entry": 5206,
      "plant": 5207,
      "342": 5208,
      "weihnachts": 5209,
      "2027": 5210,
      "bois": 5211,
      "offe": 5212,
      "modul": 5213,
      "seminar": 5214,
      "royal": 5215,
      "zne": 5216,
      "skon": 5217,
      "974": 5218,
      "anning": 5219,
      "tia": 5220,
      "agE": 5221,
      "vn": 5222,
      "cable": 5223,
      "sample": 5224,
      "union": 5225,
      "dach": 5226,
      "analys": 5227,
      "576": 5228,
      "maria": 5229,
      "BO": 5230,
      "381": 5231,
      "skar": 5232,
      "1012": 5233,
      "MC": 5234,
      "eda": 5235,
      "371": 5236,
      "corpor": 5237,
      "Inter": 5238,
      "informationen": 5239,
      "481": 5240,
      "theater": 5241,
      "digi": 5242,
      "livre": 5243,
      "comfort": 5244,
      "leograph": 5245,
      "mine": 5246,
      "dokumente": 5247,
      "wg": 5248,
      "xo": 5249,
      "sor": 5250,
      "histor": 5251,
      "overs": 5252,
      "6789": 5253,
      "508": 5254,
      "ging": 5255,
      "362": 5256,
      "wide": 5257,
      "wein": 5258,
      "brace": 5259,
      "varumar": 5260,
      "arte": 5261,
      "kok": 5262,
      "853": 5263,
      "ienne": 5264,
      "booking": 5265,
      "cali": 5266,
      "002248": 5267,
      "idas": 5268,
      "bier": 5269,
      "341": 5270,
      "uper": 5271,
      "oto": 5272,
      "czes": 5273,
      "SY": 5274,
      "xc": 5275,
      "enst": 5276,
      "camera": 5277,
      "optim": 5278,
      "1007": 5279,
      "044": 5280,
      "usta": 5281,
      "georg": 5282,
      "472": 5283,
      "icks": 5284,
      "beer": 5285,
      "lev": 5286,
      "452": 5287,
      "lemmas": 5288,
      "925": 5289,
      "983": 5290,
      "chang": 5291,
      "klein": 5292,
      "bom": 5293,
      "raum": 5294,
      "large": 5295,
      "mesh": 5296,
      "geld": 5297,
      "iate": 5298,
      "GA": 5299,
      "880": 5300,
      "FA": 5301,
      "chair": 5302,
      "674": 5303,
      "here": 5304,
      "064": 5305,
      "vail": 5306,
      "illy": 5307,
      "nh": 5308,
      "670": 5309,
      "Room": 5310,
      "Ty": 5311,
      "eis": 5312,
      "actualite": 5313,
      "migr": 5314,
      "firm": 5315,
      "magnet": 5316,
      "lexikon": 5317,
      "372": 5318,
      "answers": 5319,
      "mnogo": 5320,
      "Doc": 5321,
      "570": 5322,
      "Gr": 5323,
      "edge": 5324,
      "mh": 5325,
      "conf": 5326,
      "tress": 5327,
      "wz": 5328,
      "osc": 5329,
      "uga": 5330,
      "adam": 5331,
      "navig": 5332,
      "plom": 5333,
      "volunteer": 5334,
      "aria": 5335,
      "493": 5336,
      "header": 5337,
      "inet": 5338,
      "VA": 5339,
      "matr": 5340,
      "pz": 5341,
      "tren": 5342,
      "taxonomy": 5343,
      "easy": 5344,
      "tum": 5345,
      "054": 5346,
      "kowe": 5347,
      "arf": 5348,
      "checkout": 5349,
      "biblioteket": 5350,
      "sole": 5351,
      "edel": 5352,
      "KE": 5353,
      "raft": 5354,
      "dies": 5355,
      "force": 5356,
      "kirpich": 5357,
      "foretag": 5358,
      "tproduct": 5359,
      "gat": 5360,
      "xin": 5361,
      "560": 5362,
      "vu": 5363,
      "adap": 5364,
      "New": 5365,
      "tec": 5366,
      "00004": 5367,
      "foerder": 5368,
      "vb": 5369,
      "mj": 5370,
      "tings": 5371,
      "proionta": 5372,
      "noy": 5373,
      "032": 5374,
      "nb": 5375,
      "Fil": 5376,
      "sert": 5377,
      "jne": 5378,
      "discussion": 5379,
      "chnik": 5380,
      "eler": 5381,
      "033": 5382,
      "wedding": 5383,
      "fx": 5384,
      "093": 5385,
      "OP": 5386,
      "schedu": 5387,
      "imi": 5388,
      "cases": 5389,
      "860": 5390,
      "donu": 5391,
      "fahrrad": 5392,
      "documentation": 5393,
      "schreib": 5394,
      "four": 5395,
      "Sa": 5396,
      "reserv": 5397,
      "mul": 5398,
      "java": 5399,
      "lankbiblioteket": 5400,
      "tj": 5401,
      "++": 5402,
      "fahrt": 5403,
      "pays": 5404,
      "proto": 5405,
      "wro": 5406,
      "628": 5407,
      "tc": 5408,
      "idi": 5409,
      "plates": 5410,
      "140408": 5411,
      "441": 5412,
      "olymp": 5413,
      "schmuck": 5414,
      "sot": 5415,
      "ston": 5416,
      "agence": 5417,
      "lake": 5418,
      "column": 5419,
      "studies": 5420,
      "Pol": 5421,
      "sArticle": 5422,
      "spect": 5423,
      "winners": 5424,
      "safety": 5425,
      "imost": 5426,
      "cfm": 5427,
      "gesundheit": 5428,
      "blanc": 5429,
      "glow": 5430,
      "BW": 5431,
      "chinen": 5432,
      "brat": 5433,
      "lands": 5434,
      "craft": 5435,
      "EXTERNALEN": 5436,
      "Medical": 5437,
      "tn": 5438,
      "606": 5439,
      "dans": 5440,
      "660": 5441,
      "png": 5442,
      "licht": 5443,
      "resource": 5444,
      "cka": 5445,
      "secon": 5446,
      "eger": 5447,
      "Land": 5448,
      "052": 5449,
      "ota": 5450,
      "eli": 5451,
      "celebr": 5452,
      "ED": 5453,
      "fore": 5454,
      "964": 5455,
      "KG": 5456,
      "074": 5457,
      "gebra": 5458,
      "cookie": 5459,
      "WA": 5460,
      "shot": 5461,
      "ratgeber": 5462,
      "lem": 5463,
      "471": 5464,
      "870": 5465,
      "idia": 5466,
      "973": 5467,
      "jeans": 5468,
      "wach": 5469,
      "agG": 5470,
      "vik": 5471,
      "963": 5472,
      "actions": 5473,
      "przed": 5474,
      "Fun": 5475,
      "centre": 5476,
      "unge": 5477,
      "wlochy": 5478,
      "Dr": 5479,
      "biznes": 5480,
      "via": 5481,
      "usb": 5482,
      "pne": 5483,
      "ables": 5484,
      "czna": 5485,
      "varumarken": 5486,
      "tras": 5487,
      "492": 5488,
      "pose": 5489,
      "pag": 5490,
      "451": 5491,
      "backup": 5492,
      "inclu": 5493,
      "startseite": 5494,
      "vl": 5495,
      "aco": 5496,
      "Akt": 5497,
      "tam": 5498,
      "sound": 5499,
      "hek": 5500,
      "junior": 5501,
      "madrid": 5502,
      "ude": 5503,
      "1010": 5504,
      "liqu": 5505,
      "shi": 5506,
      "073": 5507,
      "fat": 5508,
      "10442": 5509,
      "ikation": 5510,
      "listen": 5511,
      "Pub": 5512,
      "690": 5513,
      "volvo": 5514,
      "871": 5515,
      "615": 5516,
      "PA": 5517,
      "12345": 5518,
      "972": 5519,
      "ged": 5520,
      "cot": 5521,
      "subje": 5522,
      "programme": 5523,
      "quette": 5524,
      "leon": 5525,
      "aden": 5526,
      "zhen": 5527,
      "nouvel": 5528,
      "temat": 5529,
      "tien": 5530,
      "techn": 5531,
      "transpar": 5532,
      "obs": 5533,
      "aneous": 5534,
      "gle": 5535,
      "735": 5536,
      "chart": 5537,
      "094": 5538,
      "shka": 5539,
      "puzzle": 5540,
      "ubles": 5541,
      "panor": 5542,
      "oeff": 5543,
      "got": 5544,
      "vention": 5545,
      "winner": 5546,
      "def": 5547,
      "vre": 5548,
      "iller": 5549,
      "student": 5550,
      "431": 5551,
      "583": 5552,
      "position": 5553,
      "tres": 5554,
      "Used": 5555,
      "ystem": 5556,
      "525": 5557,
      "zas": 5558,
      "rodo": 5559,
      "swiat": 5560,
      "kb": 5561,
      "ileo": 5562,
      "jax": 5563,
      "TA": 5564,
      "kus": 5565,
      "apa": 5566,
      "jose": 5567,
      "poster": 5568,
      "brevet": 5569,
      "kazan": 5570,
      "nizhn": 5571,
      "actor": 5572,
      "days": 5573,
      "zl": 5574,
      "repar": 5575,
      "kost": 5576,
      "981": 5577,
      "thomas": 5578,
      "village": 5579,
      "sham": 5580,
      "ausbildung": 5581,
      "uten": 5582,
      "031": 5583,
      "883": 5584,
      "improv": 5585,
      "Ac": 5586,
      "gul": 5587,
      "annons": 5588,
      "konzerte": 5589,
      "radi": 5590,
      "hae": 5591,
      "cil": 5592,
      "accommod": 5593,
      "491": 5594,
      "tribute": 5595,
      "enburg": 5596,
      "ose": 5597,
      "blan": 5598,
      "nezh": 5599,
      "guides": 5600,
      "mwd": 5601,
      "534": 5602,
      "uver": 5603,
      "ningar": 5604,
      "kly": 5605,
      "Kon": 5606,
      "wuer": 5607,
      "diamond": 5608,
      "sav": 5609,
      "ija": 5610,
      "editor": 5611,
      "wohnen": 5612,
      "lankar": 5613,
      "ision": 5614,
      "zm": 5615,
      "OU": 5616,
      "why": 5617,
      "solar": 5618,
      "mnogoetazhnom": 5619,
      "blau": 5620,
      "grecja": 5621,
      "TM": 5622,
      "ests": 5623,
      "SN": 5624,
      "thema": 5625,
      "contra": 5626,
      "OD": 5627,
      "580": 5628,
      "outdoors": 5629,
      "tai": 5630,
      "1200": 5631,
      "cript": 5632,
      "BU": 5633,
      "speci": 5634,
      "turom": 5635,
      "alen": 5636,
      "xg": 5637,
      "cellaneous": 5638,
      "raw": 5639,
      "illes": 5640,
      "stellenangebote": 5641,
      "vat": 5642,
      "461": 5643,
      "tig": 5644,
      "enden": 5645,
      "604": 5646,
      "lehr": 5647,
      "462": 5648,
      "952": 5649,
      "merch": 5650,
      "sweat": 5651,
      "construction": 5652,
      "jed": 5653,
      "Unit": 5654,
      "marathon": 5655,
      "482": 5656,
      "camping": 5657,
      "dzieci": 5658,
      "CM": 5659,
      "orn": 5660,
      "april": 5661,
      "fet": 5662,
      "paint": 5663,
      "OH": 5664,
      "ward": 5665,
      "1017": 5666,
      "LV": 5667,
      "ctors": 5668,
      "adr": 5669,
      "sec": 5670,
      "fatt": 5671,
      "rame": 5672,
      "kak": 5673,
      "woman": 5674,
      "spins": 5675,
      "brun": 5676,
      "890": 5677,
      "pj": 5678,
      "essent": 5679,
      "993": 5680,
      "kraft": 5681,
      "qr": 5682,
      "wirtschaft": 5683,
      "cott": 5684,
      "402": 5685,
      "json": 5686,
      "oster": 5687,
      "yak": 5688,
      "obu": 5689,
      "medizin": 5690,
      "gross": 5691,
      "telefon": 5692,
      "ln": 5693,
      "609": 5694,
      "chocol": 5695,
      "eE": 5696,
      "groupsets": 5697,
      "infos": 5698,
      "voting": 5699,
      "cau": 5700,
      "bour": 5701,
      "india": 5702,
      "andra": 5703,
      "HSK": 5704,
      "wissen": 5705,
      "oce": 5706,
      "wu": 5707,
      "true": 5708,
      "dzial": 5709,
      "badrum": 5710,
      "liber": 5711,
      "czar": 5712,
      "523": 5713,
      "cost": 5714,
      "title": 5715,
      "othe": 5716,
      "round": 5717,
      "780": 5718,
      "gratis": 5719,
      "635": 5720,
      "obo": 5721,
      "tabid": 5722,
      "Des": 5723,
      "Gu": 5724,
      "pper": 5725,
      "951": 5726,
      "lite": 5727,
      "kosten": 5728,
      "961": 5729,
      "quart": 5730,
      "eventsnach": 5731,
      "spin": 5732,
      "roslav": 5733,
      "clar": 5734,
      "roller": 5735,
      "gency": 5736,
      "financial": 5737,
      "Ber": 5738,
      "072": 5739,
      "metall": 5740,
      "moi": 5741,
      "york": 5742,
      "ground": 5743,
      "vg": 5744,
      "inder": 5745,
      "conference": 5746,
      "muenchen": 5747,
      "dacha": 5748,
      "mariage": 5749,
      "kta": 5750,
      "evsk": 5751,
      "verkehr": 5752,
      "509": 5753,
      "regul": 5754,
      "439": 5755,
      "WT": 5756,
      "cour": 5757,
      "europa": 5758,
      "msc": 5759,
      "063": 5760,
      "yur": 5761,
      "quality": 5762,
      "michael": 5763,
      "persons": 5764,
      "medien": 5765,
      "1015": 5766,
      "Mag": 5767,
      "ature": 5768,
      "koch": 5769,
      "miscellaneous": 5770,
      "zka": 5771,
      "prest": 5772,
      "Details": 5773,
      "heart": 5774,
      "stroitel": 5775,
      "bung": 5776,
      "iera": 5777,
      "caro": 5778,
      "753": 5779,
      "BCr": 5780,
      "etten": 5781,
      "trade": 5782,
      "break": 5783,
      "aid": 5784,
      "bang": 5785,
      "grow": 5786,
      "dashboard": 5787,
      "lover": 5788,
      "gaming": 5789,
      "cen": 5790,
      "hasht": 5791,
      "526": 5792,
      "dete": 5793,
      "Ab": 5794,
      "oni": 5795,
      "yel": 5796,
      "Set": 5797,
      "forms": 5798,
      "123456789": 5799,
      "accommodation": 5800,
      "cooking": 5801,
      "lost": 5802,
      "dx": 5803,
      "oles": 5804,
      "zg": 5805,
      "084": 5806,
      "discover": 5807,
      "kuz": 5808,
      "SU": 5809,
      "rei": 5810,
      "FL": 5811,
      "dee": 5812,
      "london": 5813,
      "astro": 5814,
      "rale": 5815,
      "720": 5816,
      "behand": 5817,
      "configur": 5818,
      "aktuelle": 5819,
      "wig": 5820,
      "instru": 5821,
      "sos": 5822,
      "limit": 5823,
      "Do": 5824,
      "ieres": 5825,
      "gestone": 5826,
      "jh": 5827,
      "sq": 5828,
      "freib": 5829,
      "WQ": 5830,
      "iler": 5831,
      "aparta": 5832,
      "advanced": 5833,
      "MgE": 5834,
      "import": 5835,
      "tables": 5836,
      "013": 5837,
      "CX": 5838,
      "micros": 5839,
      "august": 5840,
      "IG": 5841,
      "porte": 5842,
      "zq": 5843,
      "ications": 5844,
      "extens": 5845,
      "stain": 5846,
      "imo": 5847,
      "512": 5848,
      "grafe": 5849,
      "laser": 5850,
      "gif": 5851,
      "amy": 5852,
      "irie": 5853,
      "blackjack": 5854,
      "say": 5855,
      "oll": 5856,
      "BT": 5857,
      "furt": 5858,
      "kil": 5859,
      "november": 5860,
      "farm": 5861,
      "jard": 5862,
      "past": 5863,
      "kategori": 5864,
      "ington": 5865,
      "Info": 5866,
      "prin": 5867,
      "embre": 5868,
      "654": 5869,
      "bridgestone": 5870,
      "gog": 5871,
      "preview": 5872,
      "katalogseiten": 5873,
      "newsroom": 5874,
      "962": 5875,
      "apartament": 5876,
      "kiss": 5877,
      "offic": 5878,
      "Wer": 5879,
      "kierun": 5880,
      "ditions": 5881,
      "imata": 5882,
      "contents": 5883,
      "geschichte": 5884,
      "greece": 5885,
      "very": 5886,
      "igan": 5887,
      "industries": 5888,
      "transl": 5889,
      "]/_": 5890,
      "-(": 5891,
      "common": 5892,
      "american": 5893,
      "vos": 5894,
      "wes": 5895,
      "zabor": 5896,
      "atik": 5897,
      "1780": 5898,
      "recept": 5899,
      "tops": 5900,
      "therapie": 5901,
      "061": 5902,
      "680": 5903,
      "hose": 5904,
      "043": 5905,
      "obituaries": 5906,
      "528": 5907,
      "685": 5908,
      "chie": 5909,
      "astra": 5910,
      "lant": 5911,
      "relat": 5912,
      "david": 5913,
      "opol": 5914,
      "shorts": 5915,
      "554": 5916,
      "787": 5917,
      "tay": 5918,
      "Ge": 5919,
      "760": 5920,
      "voronezh": 5921,
      "fum": 5922,
      "605": 5923,
      "bby": 5924,
      "rif": 5925,
      "sever": 5926,
      "stall": 5927,
      "083": 5928,
      "tournament": 5929,
      "672": 5930,
      "doctor": 5931,
      "kod": 5932,
      "982": 5933,
      "566": 5934,
      "schlu": 5935,
      "fabr": 5936,
      "cash": 5937,
      "dream": 5938,
      "atelier": 5939,
      "tics": 5940,
      "OM": 5941,
      "velo": 5942,
      "kommunikation": 5943,
      "617": 5944,
      "sist": 5945,
      "moun": 5946,
      "971": 5947,
      "fz": 5948,
      "nedv": 5949,
      "favorite": 5950,
      "espace": 5951,
      "building": 5952,
      "bath": 5953,
      "masters": 5954,
      "536": 5955,
      "agog": 5956,
      "863": 5957,
      "trackback": 5958,
      "lasses": 5959,
      "appliances": 5960,
      "KI": 5961,
      "gm": 5962,
      "kalin": 5963,
      "810": 5964,
      "flower": 5965,
      "EXTERNALENUS": 5966,
      "providers": 5967,
      "court": 5968,
      "droit": 5969,
      "oikon": 5970,
      "administ": 5971,
      "holder": 5972,
      "pierre": 5973,
      "hello": 5974,
      "asz": 5975,
      "mattress": 5976,
      "bullet": 5977,
      "ted": 5978,
      "ichi": 5979,
      "wk": 5980,
      "pix": 5981,
      "hitta": 5982,
      "sans": 5983,
      "champion": 5984,
      "991": 5985,
      "working": 5986,
      "colo": 5987,
      "ifs": 5988,
      "rust": 5989,
      "snow": 5990,
      "rev": 5991,
      "ores": 5992,
      "PDF": 5993,
      "RU": 5994,
      "tea": 5995,
      "rooms": 5996,
      "SEUS": 5997,
      "bek": 5998,
      "klar": 5999,
      "icken": 6000,
      "youtube": 6001,
      "til": 6002,
      "flug": 6003,
      "MHSEUS": 6004,
      "vd": 6005,
      "chain": 6006,
      "cbd": 6007,
      "cue": 6008,
      "eto": 6009,
      "hosp": 6010,
      "obra": 6011,
      "593": 6012,
      "beige": 6013,
      "1029": 6014,
      "iker": 6015,
      "fornia": 6016,
      "tight": 6017,
      "aler": 6018,
      "speed": 6019,
      "cion": 6020,
      "ways": 6021,
      "433": 6022,
      "514": 6023,
      "PH": 6024,
      "louis": 6025,
      "733": 6026,
      "kid": 6027,
      "rueck": 6028,
      "ipp": 6029,
      "ergebnis": 6030,
      "pto": 6031,
      "992": 6032,
      "computer": 6033,
      "yg": 6034,
      "PC": 6035,
      "orient": 6036,
      "518": 6037,
      "zal": 6038,
      "chno": 6039,
      "batt": 6040,
      "schl": 6041,
      "izer": 6042,
      "similar": 6043,
      "reich": 6044,
      "final": 6045,
      "zyn": 6046,
      "nationella": 6047,
      "recherche": 6048,
      "stars": 6049,
      "507": 6050,
      "einzel": 6051,
      "galileo": 6052,
      "nur": 6053,
      "515": 6054,
      "epitropi": 6055,
      "stie": 6056,
      "1011": 6057,
      "lekt": 6058,
      "mathgroup": 6059,
      "ipoteku": 6060,
      "dil": 6061,
      "earth": 6062,
      "jk": 6063,
      "sla": 6064,
      "oro": 6065,
      "luft": 6066,
      "installation": 6067,
      "lina": 6068,
      "buil": 6069,
      "EM": 6070,
      "inn": 6071,
      "neo": 6072,
      "essay": 6073,
      "stoffe": 6074,
      "1026": 6075,
      "coming": 6076,
      "nizhniy": 6077,
      "fot": 6078,
      "patch": 6079,
      "desktop": 6080,
      "651": 6081,
      "his": 6082,
      "1016": 6083,
      "cles": 6084,
      "frequ": 6085,
      "novosti": 6086,
      "songvoting": 6087,
      "iges": 6088,
      "modelle": 6089,
      "ais": 6090,
      "session": 6091,
      "vern": 6092,
      "compute": 6093,
      "014": 6094,
      "kran": 6095,
      "human": 6096,
      "dver": 6097,
      "rem": 6098,
      "unis": 6099,
      "need": 6100,
      "beit": 6101,
      "chal": 6102,
      "686": 6103,
      "uar": 6104,
      "062": 6105,
      "613": 6106,
      "polska": 6107,
      "suppli": 6108,
      "izhimost": 6109,
      "comicbooks": 6110,
      "RI": 6111,
      "qq": 6112,
      "experience": 6113,
      "municipal": 6114,
      "avto": 6115,
      "self": 6116,
      "bourg": 6117,
      "-_": 6118,
      "nn": 6119,
      "homepage": 6120,
      "zlo": 6121,
      "stahl": 6122,
      "introdu": 6123,
      "590": 6124,
      "nedvizhimost": 6125,
      "zul": 6126,
      "tet": 6127,
      "depo": 6128,
      "activites": 6129,
      "assign": 6130,
      "igkeit": 6131,
      "forsch": 6132,
      "Tour": 6133,
      "burger": 6134,
      "systeme": 6135,
      "improvement": 6136,
      "MX": 6137,
      "dobr": 6138,
      "safe": 6139,
      "number": 6140,
      "884": 6141,
      "clear": 6142,
      "oikonom": 6143,
      "aki": 6144,
      "jd": 6145,
      "lak": 6146,
      "muster": 6147,
      "687": 6148,
      "riv": 6149,
      "chist": 6150,
      "shel": 6151,
      "nowe": 6152,
      "schedule": 6153,
      "nissan": 6154,
      "east": 6155,
      "resort": 6156,
      "skol": 6157,
      "arrings": 6158,
      "moon": 6159,
      "653": 6160,
      "handel": 6161,
      "nosc": 6162,
      "koeln": 6163,
      "ifi": 6164,
      "anako": 6165,
      "illi": 6166,
      "081": 6167,
      "rosa": 6168,
      "race": 6169,
      "575": 6170,
      "790": 6171,
      "625": 6172,
      "swim": 6173,
      "zag": 6174,
      "xr": 6175,
      "manufacturer": 6176,
      "publikationen": 6177,
      "ries": 6178,
      "ansk": 6179,
      "maker": 6180,
      "bler": 6181,
      "itet": 6182,
      "923": 6183,
      "ify": 6184,
      "664": 6185,
      "canon": 6186,
      "chic": 6187,
      "nev": 6188,
      "bling": 6189,
      "577": 6190,
      "lud": 6191,
      "ators": 6192,
      "aleks": 6193,
      "baden": 6194,
      "/.": 6195,
      "inne": 6196,
      "dub": 6197,
      "obor": 6198,
      "dawn": 6199,
      "geschen": 6200,
      "khab": 6201,
      "wiec": 6202,
      "yka": 6203,
      "wur": 6204,
      "zha": 6205,
      "arc": 6206,
      "cluster": 6207,
      "527": 6208,
      "meldungen": 6209,
      "blatt": 6210,
      "semin": 6211,
      "652": 6212,
      "jacket": 6213,
      "ovaya": 6214,
      "sicherheit": 6215,
      "tier": 6216,
      "trends": 6217,
      "azh": 6218,
      "mug": 6219,
      "pics": 6220,
      "kray": 6221,
      "zastroyschik": 6222,
      "ource": 6223,
      "loire": 6224,
      "iences": 6225,
      "parking": 6226,
      "metho": 6227,
      "uche": 6228,
      "HA": 6229,
      "alles": 6230,
      "grade": 6231,
      "Mz": 6232,
      "1034": 6233,
      "bass": 6234,
      "bras": 6235,
      "lok": 6236,
      "pharmacie": 6237,
      "538": 6238,
      "examples": 6239,
      "steuer": 6240,
      "1999": 6241,
      "pump": 6242,
      "africa": 6243,
      "igee": 6244,
      "marche": 6245,
      "kut": 6246,
      "lett": 6247,
      "hir": 6248,
      "bial": 6249,
      "forfatt": 6250,
      "wellness": 6251,
      "Cg": 6252,
      "jum": 6253,
      "cycle": 6254,
      "vintage": 6255,
      "export": 6256,
      "texas": 6257,
      "navigation": 6258,
      "784": 6259,
      "rin": 6260,
      "rud": 6261,
      "CL": 6262,
      "042": 6263,
      "curs": 6264,
      "jur": 6265,
      "leder": 6266,
      "apply": 6267,
      "freiburg": 6268,
      "813": 6269,
      "earrings": 6270,
      "YgE": 6271,
      "koen": 6272,
      "apofaseis": 6273,
      "marine": 6274,
      "595": 6275,
      "quet": 6276,
      "libra": 6277,
      "arthro": 6278,
      "covid": 6279,
      "kou": 6280,
      "sonst": 6281,
      "BK": 6282,
      "594": 6283,
      "1211": 6284,
      "sprech": 6285,
      "jw": 6286,
      "vehicle": 6287,
      "eff": 6288,
      "modern": 6289,
      "suv": 6290,
      "enterprise": 6291,
      "671": 6292,
      "ified": 6293,
      "Ev": 6294,
      "Ges": 6295,
      "hart": 6296,
      "boden": 6297,
      "landtag": 6298,
      "VT": 6299,
      "friend": 6300,
      "726": 6301,
      "DI": 6302,
      "szcz": 6303,
      "Ma": 6304,
      "chet": 6305,
      "894": 6306,
      "sheet": 6307,
      "zom": 6308,
      "ational": 6309,
      "apigee": 6310,
      "1023": 6311,
      "071": 6312,
      "hyundai": 6313,
      "xiaomi": 6314,
      "Ter": 6315,
      "six": 6316,
      "rn": 6317,
      "zek": 6318,
      "iron": 6319,
      "663": 6320,
      "511": 6321,
      "kuechen": 6322,
      "FF": 6323,
      "pup": 6324,
      "tash": 6325,
      "defin": 6326,
      "ysty": 6327,
      "spain": 6328,
      "708": 6329,
      "sdacha": 6330,
      "520": 6331,
      "Bu": 6332,
      "qi": 6333,
      "lander": 6334,
      "tree": 6335,
      "546": 6336,
      "pens": 6337,
      "nement": 6338,
      "hun": 6339,
      "abend": 6340,
      "beruf": 6341,
      "porn": 6342,
      "cards": 6343,
      "598": 6344,
      "heits": 6345,
      "transparent": 6346,
      "forfattare": 6347,
      "bayern": 6348,
      "medicine": 6349,
      "flat": 6350,
      "662": 6351,
      "RA": 6352,
      "pilot": 6353,
      "cky": 6354,
      "vier": 6355,
      "JPG": 6356,
      "gien": 6357,
      "gottesdienst": 6358,
      "oj": 6359,
      "ench": 6360,
      "rey": 6361,
      "tox": 6362,
      "departement": 6363,
      "lb": 6364,
      "uty": 6365,
      "giro": 6366,
      "slubne": 6367,
      "zug": 6368,
      "egel": 6369,
      "frage": 6370,
      "kirov": 6371,
      "524": 6372,
      "1014": 6373,
      "tie": 6374,
      "organization": 6375,
      "nizh": 6376,
      "tb": 6377,
      "anime": 6378,
      "sap": 6379,
      "anger": 6380,
      "wb": 6381,
      "hes": 6382,
      "shows": 6383,
      "credit": 6384,
      "mebeliu": 6385,
      "california": 6386,
      "agg": 6387,
      "xyz": 6388,
      "fernse": 6389,
      "619": 6390,
      "daniel": 6391,
      "Cont": 6392,
      "mechan": 6393,
      "second": 6394,
      "586": 6395,
      "618": 6396,
      "903": 6397,
      "fte": 6398,
      "utbild": 6399,
      "iej": 6400,
      "familien": 6401,
      "gcloud": 6402,
      "isten": 6403,
      "svart": 6404,
      "oms": 6405,
      "eventsnachtag": 6406,
      "miesz": 6407,
      "SV": 6408,
      "051": 6409,
      "lyon": 6410,
      "escort": 6411,
      "kierunki": 6412,
      "545": 6413,
      "614": 6414,
      "grad": 6415,
      "python": 6416,
      "dating": 6417,
      "fish": 6418,
      "pian": 6419,
      "rb": 6420,
      "sht": 6421,
      "opera": 6422,
      "873": 6423,
      "dictionary": 6424,
      "Kom": 6425,
      "Mj": 6426,
      "zolo": 6427,
      "2500": 6428,
      "pry": 6429,
      "wind": 6430,
      "reinigung": 6431,
      "ej": 6432,
      "kernel": 6433,
      "636": 6434,
      "target": 6435,
      "titel": 6436,
      "spirit": 6437,
      "promotion": 6438,
      "mitarbeiter": 6439,
      "objekt": 6440,
      "idra": 6441,
      "bostad": 6442,
      "082": 6443,
      "voir": 6444,
      "after": 6445,
      "pent": 6446,
      "Link": 6447,
      "nac": 6448,
      "inka": 6449,
      "inspir": 6450,
      "gruppe": 6451,
      "residential": 6452,
      "inten": 6453,
      "684": 6454,
      "writing": 6455,
      "units": 6456,
      "596": 6457,
      "xj": 6458,
      "tous": 6459,
      "nah": 6460,
      "eV": 6461,
      "mith": 6462,
      "697": 6463,
      "boot": 6464,
      "091": 6465,
      "politics": 6466,
      "childr": 6467,
      "567": 6468,
      "tul": 6469,
      "hero": 6470,
      "towe": 6471,
      "coin": 6472,
      "perm": 6473,
      "datab": 6474,
      "770": 6475,
      "tp": 6476,
      "841": 6477,
      "clothing": 6478,
      "inskaya": 6479,
      "zost": 6480,
      "zil": 6481,
      "629": 6482,
      "1013": 6483,
      "bey": 6484,
      "KLA": 6485,
      "etr": 6486,
      "bags": 6487,
      "BM": 6488,
      "nice": 6489,
      "734": 6490,
      "pure": 6491,
      "tid": 6492,
      "informat": 6493,
      "desh": 6494,
      "corporate": 6495,
      "adidas": 6496,
      "QU": 6497,
      "612": 6498,
      "wAH": 6499,
      "willi": 6500,
      "related": 6501,
      "mba": 6502,
      "mund": 6503,
      "dusch": 6504,
      ":::": 6505,
      "hren": 6506,
      "vara": 6507,
      "uan": 6508,
      "igo": 6509,
      "candid": 6510,
      "gos": 6511,
      "SL": 6512,
      "lois": 6513,
      "poo": 6514,
      "surg": 6515,
      "geme": 6516,
      "kp": 6517,
      "entrepr": 6518,
      "bun": 6519,
      "bear": 6520,
      "marie": 6521,
      "votre": 6522,
      "dynam": 6523,
      "Zubehoer": 6524,
      "conditions": 6525,
      "ugi": 6526,
      "Index": 6527,
      "bull": 6528,
      "send": 6529,
      "matt": 6530,
      "yaroslav": 6531,
      "interview": 6532,
      "HP": 6533,
      "uta": 6534,
      "stm": 6535,
      "uritsk": 6536,
      "513": 6537,
      "626": 6538,
      "Tele": 6539,
      "ligue": 6540,
      "who": 6541,
      "enk": 6542,
      "ischer": 6543,
      "sku": 6544,
      "1286": 6545,
      "ekonom": 6546,
      "insurance": 6547,
      "Furniture": 6548,
      "Nov": 6549,
      "rendez": 6550,
      "FI": 6551,
      "Report": 6552,
      "clubs": 6553,
      "kommer": 6554,
      "wang": 6555,
      "788": 6556,
      "joom": 6557,
      "683": 6558,
      "artykuly": 6559,
      "DC": 6560,
      "praco": 6561,
      "economics": 6562,
      "oborudo": 6563,
      "EU": 6564,
      "Web": 6565,
      "stats": 6566,
      "angle": 6567,
      "020": 6568,
      "claw": 6569,
      "nyi": 6570,
      "oferty": 6571,
      "classes": 6572,
      "Aug": 6573,
      "EV": 6574,
      "Eng": 6575,
      "gut": 6576,
      "klo": 6577,
      "standorte": 6578,
      "homme": 6579,
      "422": 6580,
      "bryan": 6581,
      "nz": 6582,
      "vors": 6583,
      "creation": 6584,
      "Ersatz": 6585,
      "Fr": 6586,
      "etzen": 6587,
      "flan": 6588,
      "stut": 6589,
      "production": 6590,
      "547": 6591,
      "Bar": 6592,
      "grill": 6593,
      "organisation": 6594,
      "leitung": 6595,
      "MG": 6596,
      "blank": 6597,
      "frauen": 6598,
      "ipoteka": 6599,
      "517": 6600,
      "pracy": 6601,
      "jab": 6602,
      "stam": 6603,
      "ikis": 6604,
      "anten": 6605,
      "015": 6606,
      "right": 6607,
      "codes": 6608,
      "opal": 6609,
      "professional": 6610,
      "rup": 6611,
      "werbe": 6612,
      "KO": 6613,
      "roc": 6614,
      "sug": 6615,
      "trend": 6616,
      "852": 6617,
      "PROKLA": 6618,
      "pric": 6619,
      "slider": 6620,
      "aton": 6621,
      "energie": 6622,
      "gemeinde": 6623,
      "kuk": 6624,
      "gets": 6625,
      "Light": 6626,
      "stroj": 6627,
      "793": 6628,
      "england": 6629,
      "872": 6630,
      "516": 6631,
      "hb": 6632,
      "elen": 6633,
      "529": 6634,
      "footer": 6635,
      "mega": 6636,
      "519": 6637,
      "694": 6638,
      "modell": 6639,
      "ljud": 6640,
      "zia": 6641,
      "bov": 6642,
      "anton": 6643,
      "retro": 6644,
      "princ": 6645,
      "commercial": 6646,
      "Surgical": 6647,
      "jsp": 6648,
      "854": 6649,
      "istan": 6650,
      "chrome": 6651,
      "cing": 6652,
      "iens": 6653,
      "templates": 6654,
      "kc": 6655,
      "duck": 6656,
      "etik": 6657,
      "Stadt": 6658,
      "537": 6659,
      "fq": 6660,
      "ely": 6661,
      "yellow": 6662,
      "Ford": 6663,
      "ebook": 6664,
      "wing": 6665,
      "reda": 6666,
      "isis": 6667,
      "xv": 6668,
      "gesell": 6669,
      "wies": 6670,
      "herz": 6671,
      "koltsa": 6672,
      "kasyno": 6673,
      "rhein": 6674,
      "santa": 6675,
      "Mit": 6676,
      "arsen": 6677,
      "frontend": 6678,
      "lom": 6679,
      "szt": 6680,
      "little": 6681,
      "only": 6682,
      "redi": 6683,
      "registration": 6684,
      "tashkent": 6685,
      "10335": 6686,
      "sarat": 6687,
      "WS": 6688,
      "XL": 6689,
      "gear": 6690,
      "cheskaya": 6691,
      "hospital": 6692,
      "bug": 6693,
      "brit": 6694,
      "braun": 6695,
      "maschinen": 6696,
      "nouve": 6697,
      "lift": 6698,
      "rolet": 6699,
      "waren": 6700,
      "infra": 6701,
      "elt": 6702,
      "851": 6703,
      "tgart": 6704,
      "gewin": 6705,
      "internal": 6706,
      "veranstaltungs": 6707,
      "cuis": 6708,
      "Media": 6709,
      "wickl": 6710,
      "jt": 6711,
      "kum": 6712,
      "irov": 6713,
      "fuehrung": 6714,
      "1778": 6715,
      "uw": 6716,
      "709": 6717,
      "fed": 6718,
      "893": 6719,
      "ipps": 6720,
      "industrial": 6721,
      "._": 6722,
      "warto": 6723,
      "1402": 6724,
      "CgH": 6725,
      "istry": 6726,
      "mplo": 6727,
      "witter": 6728,
      "include": 6729,
      "803": 6730,
      "Nw": 6731,
      "sergi": 6732,
      "dows": 6733,
      "queen": 6734,
      "lokal": 6735,
      "medium": 6736,
      "infin": 6737,
      "zhi": 6738,
      "premier": 6739,
      "610": 6740,
      "rog": 6741,
      "osa": 6742,
      "ilet": 6743,
      "andrika": 6744,
      "hay": 6745,
      "00000000": 6746,
      "virtual": 6747,
      "645": 6748,
      "kru": 6749,
      "lmd": 6750,
      "kcje": 6751,
      "woche": 6752,
      "Dis": 6753,
      "No": 6754,
      "sony": 6755,
      "subjects": 6756,
      "cock": 6757,
      "kueche": 6758,
      "jc": 6759,
      "uh": 6760,
      "orf": 6761,
      "lim": 6762,
      "evskaya": 6763,
      "kub": 6764,
      "portra": 6765,
      "aser": 6766,
      "tver": 6767,
      "leather": 6768,
      "553": 6769,
      "ources": 6770,
      "federal": 6771,
      "1111": 6772,
      "zs": 6773,
      "medi": 6774,
      "MgF": 6775,
      "ccion": 6776,
      "wonder": 6777,
      "oborudovanie": 6778,
      "balt": 6779,
      "hell": 6780,
      "meble": 6781,
      "874": 6782,
      "russia": 6783,
      "627": 6784,
      "enta": 6785,
      "range": 6786,
      "ists": 6787,
      "MS": 6788,
      "zips": 6789,
      "mars": 6790,
      "trav": 6791,
      "535": 6792,
      "Arch": 6793,
      "kd": 6794,
      "avi": 6795,
      "herr": 6796,
      "Me": 6797,
      "cpo": 6798,
      "lun": 6799,
      "hans": 6800,
      "tapet": 6801,
      "bloggen": 6802,
      "corona": 6803,
      "spec": 6804,
      "bracelet": 6805,
      "jord": 6806,
      "ooo": 6807,
      "matlab": 6808,
      "tablet": 6809,
      "flight": 6810,
      "dac": 6811,
      "LI": 6812,
      "kolo": 6813,
      "tovary": 6814,
      "bele": 6815,
      "nitt": 6816,
      "yab": 6817,
      "royxa": 6818,
      "1020": 6819,
      "loes": 6820,
      "amar": 6821,
      "ikov": 6822,
      "gren": 6823,
      "ucher": 6824,
      "wQE": 6825,
      "kien": 6826,
      "pir": 6827,
      "646": 6828,
      "enimer": 6829,
      "australia": 6830,
      "vv": 6831,
      "anta": 6832,
      "erna": 6833,
      "ising": 6834,
      "vey": 6835,
      "zahlen": 6836,
      "1027": 6837,
      "bestell": 6838,
      "bQE": 6839,
      "abc": 6840,
      "611": 6841,
      "films": 6842,
      "GE": 6843,
      "GT": 6844,
      "gate": 6845,
      "kopf": 6846,
      "employer": 6847,
      "betrie": 6848,
      "alten": 6849,
      "tries": 6850,
      "jobanzeige": 6851,
      "682": 6852,
      "0000025": 6853,
      "Qa": 6854,
      "valent": 6855,
      "092": 6856,
      "648": 6857,
      "lez": 6858,
      "kowy": 6859,
      "Up": 6860,
      "feier": 6861,
      "petit": 6862,
      "wizard": 6863,
      "gestion": 6864,
      "738": 6865,
      "GS": 6866,
      "solid": 6867,
      "quer": 6868,
      "using": 6869,
      "settings": 6870,
      "allenge": 6871,
      "tuer": 6872,
      "zone": 6873,
      "/++": 6874,
      "Da": 6875,
      "navy": 6876,
      "bulletin": 6877,
      "746": 6878,
      "Id": 6879,
      "emy": 6880,
      "pants": 6881,
      "politique": 6882,
      "enke": 6883,
      "chur": 6884,
      "idad": 6885,
      "conseil": 6886,
      "864": 6887,
      "great": 6888,
      "disney": 6889,
      "strom": 6890,
      "chevrolet": 6891,
      "bz": 6892,
      "ald": 6893,
      "born": 6894,
      "ufa": 6895,
      "elin": 6896,
      "epist": 6897,
      "disk": 6898,
      "running": 6899,
      "spread": 6900,
      "tch": 6901,
      "hrist": 6902,
      "halter": 6903,
      "metry": 6904,
      "mathem": 6905,
      "754": 6906,
      "ordin": 6907,
      "616": 6908,
      "EE": 6909,
      "wave": 6910,
      "notice": 6911,
      "DD": 6912,
      "mers": 6913,
      "meister": 6914,
      "amel": 6915,
      "inium": 6916,
      "Mer": 6917,
      "retail": 6918,
      "hou": 6919,
      "butter": 6920,
      "hq": 6921,
      "haush": 6922,
      "Pl": 6923,
      "entwickl": 6924,
      "cyber": 6925,
      "817": 6926,
      "818": 6927,
      "imes": 6928,
      "574": 6929,
      "quotes": 6930,
      "inas": 6931,
      "eline": 6932,
      "jazz": 6933,
      "FQE": 6934,
      "silber": 6935,
      "analytics": 6936,
      "eau": 6937,
      "kult": 6938,
      "naves": 6939,
      "KF": 6940,
      "viny": 6941,
      "phy": 6942,
      "ength": 6943,
      "744": 6944,
      "Out": 6945,
      "fete": 6946,
      "evye": 6947,
      "zew": 6948,
      "Blog": 6949,
      "blogg": 6950,
      "simple": 6951,
      "preis": 6952,
      "portug": 6953,
      "klader": 6954,
      "00224804": 6955,
      "roch": 6956,
      "tipps": 6957,
      "mexico": 6958,
      "704": 6959,
      "ienia": 6960,
      "1399": 6961,
      "REN": 6962,
      "ocs": 6963,
      "zastroyschiki": 6964,
      "bibliothe": 6965,
      "522": 6966,
      "773": 6967,
      "mieszkan": 6968,
      "leuchten": 6969,
      "gdan": 6970,
      "eldungen": 6971,
      "jaz": 6972,
      "ellada": 6973,
      "pear": 6974,
      "gora": 6975,
      "789": 6976,
      "hill": 6977,
      "plane": 6978,
      "Techno": 6979,
      "807": 6980,
      "sweet": 6981,
      "dack": 6982,
      "prime": 6983,
      "telstva": 6984,
      "filmy": 6985,
      "dle": 6986,
      "guer": 6987,
      "WI": 6988,
      "qg": 6989,
      "similarity": 6990,
      "Categ": 6991,
      "vap": 6992,
      "etter": 6993,
      "heil": 6994,
      "tensive": 6995,
      "GU": 6996,
      "stroytelstva": 6997,
      "ghidra": 6998,
      "oney": 6999,
      "ctwo": 7000,
      "aging": 7001,
      "verk": 7002,
      "meille": 7003,
      "legacy": 7004,
      "dance": 7005,
      "woo": 7006,
      "updates": 7007,
      "mond": 7008,
      "finanzierung": 7009,
      "WP": 7010,
      "548": 7011,
      "netz": 7012,
      "Oper": 7013,
      "uecks": 7014,
      "nous": 7015,
      "CV": 7016,
      "nv": 7017,
      "toys": 7018,
      "vehicles": 7019,
      "male": 7020,
      "hnen": 7021,
      "Tom": 7022,
      "vertex": 7023,
      "password": 7024,
      "MB": 7025,
      "orer": 7026,
      "quote": 7027,
      "lego": 7028,
      "koer": 7029,
      "akes": 7030,
      "yaz": 7031,
      "Cw": 7032,
      "medicaments": 7033,
      "WY": 7034,
      "lil": 7035,
      "peters": 7036,
      "hw": 7037,
      "commit": 7038,
      "spielen": 7039,
      "stuttgart": 7040,
      "push": 7041,
      "tournaments": 7042,
      "941": 7043,
      "667": 7044,
      "hak": 7045,
      "mdf": 7046,
      "twitter": 7047,
      "ovsk": 7048,
      "ozer": 7049,
      "ril": 7050,
      "1600": 7051,
      "estra": 7052,
      "saw": 7053,
      "710": 7054,
      "749": 7055,
      "Polit": 7056,
      "epo": 7057,
      "appar": 7058,
      "peint": 7059,
      "Maz": 7060,
      "okty": 7061,
      "redu": 7062,
      "842": 7063,
      "chicken": 7064,
      "adi": 7065,
      "healthcare": 7066,
      "ograf": 7067,
      "unic": 7068,
      "HR": 7069,
      "zr": 7070,
      "pav": 7071,
      "role": 7072,
      "ria": 7073,
      "emble": 7074,
      "pred": 7075,
      "elements": 7076,
      "richts": 7077,
      "usse": 7078,
      "LED": 7079,
      "ked": 7080,
      "ission": 7081,
      "Radio": 7082,
      "jor": 7083,
      "evol": 7084,
      "dell": 7085,
      "sere": 7086,
      "rental": 7087,
      "kore": 7088,
      "upe": 7089,
      "mairie": 7090,
      "qm": 7091,
      "uri": 7092,
      "703": 7093,
      "Tag": 7094,
      "civ": 7095,
      "hre": 7096,
      "util": 7097,
      "aven": 7098,
      "Lu": 7099,
      "nek": 7100,
      "sujet": 7101,
      "Ser": 7102,
      "eks": 7103,
      "elite": 7104,
      "lady": 7105,
      "Ko": 7106,
      "pist": 7107,
      "brief": 7108,
      "pfer": 7109,
      "sund": 7110,
      "aland": 7111,
      "imen": 7112,
      "881": 7113,
      "september": 7114,
      "cape": 7115,
      "arbeits": 7116,
      "klinik": 7117,
      "benef": 7118,
      "engineering": 7119,
      "blizzak": 7120,
      "718": 7121,
      "kalendar": 7122,
      "solution": 7123,
      "plata": 7124,
      "logistik": 7125,
      "meeting": 7126,
      "obi": 7127,
      "748": 7128,
      "nio": 7129,
      "lac": 7130,
      "utom": 7131,
      "zweck": 7132,
      "csv": 7133,
      "zub": 7134,
      "etre": 7135,
      "gx": 7136,
      "archiw": 7137,
      "galleries": 7138,
      "static": 7139,
      "this": 7140,
      "ups": 7141,
      "637": 7142,
      "rib": 7143,
      "dise": 7144,
      "decken": 7145,
      "eck": 7146,
      "engagement": 7147,
      "017": 7148,
      "rower": 7149,
      "atique": 7150,
      ").": 7151,
      "analysis": 7152,
      "CR": 7153,
      "emer": 7154,
      "573": 7155,
      "punkt": 7156,
      "qy": 7157,
      "1070": 7158,
      "tenance": 7159,
      "posu": 7160,
      "hardware": 7161,
      "elo": 7162,
      "imir": 7163,
      "siya": 7164,
      "MN": 7165,
      "qw": 7166,
      "error": 7167,
      "587": 7168,
      "eurs": 7169,
      "ogloszenie": 7170,
      "standup": 7171,
      "mikrorajon": 7172,
      "tad": 7173,
      "sochi": 7174,
      "besch": 7175,
      "familie": 7176,
      "amazon": 7177,
      "Black": 7178,
      "kole": 7179,
      "konst": 7180,
      "499": 7181,
      "cycl": 7182,
      "paidika": 7183,
      "unterrichts": 7184,
      "orch": 7185,
      "spray": 7186,
      "563": 7187,
      "bill": 7188,
      "bett": 7189,
      "Therapy": 7190,
      "623": 7191,
      "cancer": 7192,
      "schafts": 7193,
      "doi": 7194,
      "kommercheskaya": 7195,
      "gur": 7196,
      "spb": 7197,
      "trim": 7198,
      "TS": 7199,
      "sections": 7200,
      "notre": 7201,
      "beck": 7202,
      "ipzig": 7203,
      "1125": 7204,
      "727": 7205,
      "schra": 7206,
      "azan": 7207,
      "661": 7208,
      "kvartiry": 7209,
      "My": 7210,
      "vidal": 7211,
      "KY": 7212,
      "isches": 7213,
      "grau": 7214,
      "jardin": 7215,
      "christian": 7216,
      "ned": 7217,
      "package": 7218,
      "medicare": 7219,
      "leaders": 7220,
      "uehl": 7221,
      "victor": 7222,
      "exhibit": 7223,
      "barcau": 7224,
      "barcauan": 7225,
      "Rep": 7226,
      "Sport": 7227,
      "lk": 7228,
      "706": 7229,
      "sara": 7230,
      "accoun": 7231,
      "iczne": 7232,
      "mall": 7233,
      "gad": 7234,
      "nicht": 7235,
      "1028": 7236,
      "beste": 7237,
      "1047": 7238,
      "wissensch": 7239,
      "OV": 7240,
      "flip": 7241,
      "sozial": 7242,
      "pository": 7243,
      "lash": 7244,
      "opis": 7245,
      "focus": 7246,
      "620": 7247,
      "diagnost": 7248,
      "mist": 7249,
      "jacke": 7250,
      "719": 7251,
      "rechts": 7252,
      "ifications": 7253,
      "Ba": 7254,
      "hta": 7255,
      "drivers": 7256,
      "billing": 7257,
      "polity": 7258,
      "struktur": 7259,
      "pneum": 7260,
      "amo": 7261,
      "imit": 7262,
      "jf": 7263,
      "tankstelle": 7264,
      "jim": 7265,
      "iza": 7266,
      "PI": 7267,
      "sida": 7268,
      "challenge": 7269,
      "20220": 7270,
      "xd": 7271,
      "Google": 7272,
      "repor": 7273,
      "gc": 7274,
      "deko": 7275,
      "imper": 7276,
      "enimerosi": 7277,
      "bare": 7278,
      "zed": 7279,
      "ove": 7280,
      "meta": 7281,
      "lr": 7282,
      "future": 7283,
      "KVV": 7284,
      "enne": 7285,
      "sev": 7286,
      "figur": 7287,
      "911": 7288,
      "GL": 7289,
      "payment": 7290,
      "oversikt": 7291,
      "805": 7292,
      "jets": 7293,
      "693": 7294,
      "exp": 7295,
      "paz": 7296,
      "707": 7297,
      "May": 7298,
      "836": 7299,
      "structure": 7300,
      "tf": 7301,
      "weight": 7302,
      "Ap": 7303,
      "too": 7304,
      "mature": 7305,
      "711": 7306,
      "Na": 7307,
      "ames": 7308,
      "inom": 7309,
      "urlaub": 7310,
      "doss": 7311,
      "practice": 7312,
      "WW": 7313,
      "tanz": 7314,
      "nova": 7315,
      "joy": 7316,
      "808": 7317,
      "itar": 7318,
      "lust": 7319,
      "861": 7320,
      "forets": 7321,
      "assistant": 7322,
      "EA": 7323,
      "815": 7324,
      "sher": 7325,
      "deals": 7326,
      "specif": 7327,
      "pio": 7328,
      "551": 7329,
      "etiquette": 7330,
      "administrat": 7331,
      "eO": 7332,
      "deep": 7333,
      "716": 7334,
      "Du": 7335,
      "crew": 7336,
      "turbo": 7337,
      "gau": 7338,
      "qiu": 7339,
      "wine": 7340,
      "march": 7341,
      "774": 7342,
      "samara": 7343,
      "specialist": 7344,
      "bik": 7345,
      "oral": 7346,
      "oktyabr": 7347,
      "itre": 7348,
      "edin": 7349,
      "bygg": 7350,
      "zostale": 7351,
      "Public": 7352,
      "XX": 7353,
      "omo": 7354,
      "ismo": 7355,
      "haut": 7356,
      "Aus": 7357,
      "loy": 7358,
      "stuhl": 7359,
      "river": 7360,
      "idel": 7361,
      "czas": 7362,
      "nacht": 7363,
      "kluch": 7364,
      "mirror": 7365,
      "DQ": 7366,
      "765": 7367,
      "gay": 7368,
      "occ": 7369,
      "ceram": 7370,
      "At": 7371,
      "WV": 7372,
      "zow": 7373,
      "tagi": 7374,
      "bee": 7375,
      "carte": 7376,
      "iem": 7377,
      "uum": 7378,
      "june": 7379,
      "treatment": 7380,
      "012": 7381,
      "806": 7382,
      "bos": 7383,
      "appengine": 7384,
      "filme": 7385,
      "volley": 7386,
      "737": 7387,
      "Functions": 7388,
      "kyo": 7389,
      "qs": 7390,
      "rush": 7391,
      "764": 7392,
      "graphics": 7393,
      "chromium": 7394,
      "coaching": 7395,
      "asc": 7396,
      "neuheiten": 7397,
      "bigquery": 7398,
      "ckey": 7399,
      "magas": 7400,
      "nx": 7401,
      "moda": 7402,
      "sou": 7403,
      "james": 7404,
      "ont": 7405,
      "794": 7406,
      "zien": 7407,
      "veranstaltungskalender": 7408,
      "915": 7409,
      "pia": 7410,
      "shell": 7411,
      "kategorien": 7412,
      "gottesdienste": 7413,
      "yam": 7414,
      "ental": 7415,
      "713": 7416,
      "hook": 7417,
      "ierz": 7418,
      "birth": 7419,
      "ici": 7420,
      "zej": 7421,
      "sneakers": 7422,
      "Hand": 7423,
      "pomor": 7424,
      "archiwum": 7425,
      "icheskie": 7426,
      "bolsho": 7427,
      "iria": 7428,
      "osoph": 7429,
      "ALL": 7430,
      "BQ": 7431,
      "mira": 7432,
      "0001": 7433,
      "681": 7434,
      "fernsehen": 7435,
      "aca": 7436,
      "hoodie": 7437,
      "featured": 7438,
      "papers": 7439,
      "windows": 7440,
      "clip": 7441,
      "pharma": 7442,
      "gence": 7443,
      "rentals": 7444,
      "786": 7445,
      "723": 7446,
      "Wh": 7447,
      "gag": 7448,
      "countries": 7449,
      "fuehrungen": 7450,
      "DR": 7451,
      "creme": 7452,
      "wip": 7453,
      "spezial": 7454,
      "surviv": 7455,
      "requests": 7456,
      "saratov": 7457,
      "Code": 7458,
      "taschen": 7459,
      "665": 7460,
      "747": 7461,
      "had": 7462,
      "gesetz": 7463,
      "huawei": 7464,
      "uki": 7465,
      "vul": 7466,
      "aper": 7467,
      "1998": 7468,
      "jahre": 7469,
      "ljudbok": 7470,
      "materiel": 7471,
      "YA": 7472,
      "dela": 7473,
      "piece": 7474,
      "jlr": 7475,
      "328634": 7476,
      "matlabcentral": 7477,
      "tds": 7478,
      "Feed": 7479,
      "gli": 7480,
      "dvig": 7481,
      "patient": 7482,
      "816": 7483,
      "kleid": 7484,
      "acle": 7485,
      "abs": 7486,
      "NL": 7487,
      "PF": 7488,
      "Bi": 7489,
      "eko": 7490,
      "liance": 7491,
      "pozostale": 7492,
      "zowe": 7493,
      "jb": 7494,
      "photographe": 7495,
      "1050": 7496,
      "khabar": 7497,
      "Ca": 7498,
      "stuecks": 7499,
      "anty": 7500,
      "ideas": 7501,
      "bsbw": 7502,
      "zabory": 7503,
      "705": 7504,
      "430": 7505,
      "cq": 7506,
      "nm": 7507,
      "clinic": 7508,
      "dimit": 7509,
      "primer": 7510,
      "microsoft": 7511,
      "czka": 7512,
      "bure": 7513,
      "seat": 7514,
      "572": 7515,
      "pullover": 7516,
      "nk": 7517,
      "bedarf": 7518,
      "ICU": 7519,
      "konfer": 7520,
      "presentation": 7521,
      "Center": 7522,
      "sna": 7523,
      "schen": 7524,
      "testimonials": 7525,
      "Veranstaltung": 7526,
      "fant": 7527,
      "aby": 7528,
      "keno": 7529,
      "esia": 7530,
      "Del": 7531,
      "GO": 7532,
      "bub": 7533,
      "bosch": 7534,
      "girokonto": 7535,
      "chaus": 7536,
      "752": 7537,
      "foi": 7538,
      "pik": 7539,
      "ieur": 7540,
      "lista": 7541,
      "rp": 7542,
      "than": 7543,
      "monde": 7544,
      "cords": 7545,
      "024": 7546,
      "1022": 7547,
      "DY": 7548,
      "etes": 7549,
      "touch": 7550,
      "rome": 7551,
      "current": 7552,
      "pois": 7553,
      "aysk": 7554,
      "schne": 7555,
      "552": 7556,
      "811": 7557,
      "542": 7558,
      "multim": 7559,
      "724": 7560,
      "hoe": 7561,
      "gov": 7562,
      "TI": 7563,
      "forest": 7564,
      "obraz": 7565,
      "switching": 7566,
      "gratuits": 7567,
      "skop": 7568,
      "feuer": 7569,
      "inee": 7570,
      "routes": 7571,
      "751": 7572,
      "pons": 7573,
      "wider": 7574,
      "kami": 7575,
      "Posts": 7576,
      "819": 7577,
      "ums": 7578,
      "sud": 7579,
      "ouar": 7580,
      "gf": 7581,
      "zcz": 7582,
      "polskie": 7583,
      "schn": 7584,
      "known": 7585,
      "688": 7586,
      "uto": 7587,
      "640": 7588,
      "athlet": 7589,
      "Met": 7590,
      "idrec": 7591,
      "detailseite": 7592,
      "memory": 7593,
      "BI": 7594,
      "DO": 7595,
      "ML": 7596,
      "dlibra": 7597,
      "geomet": 7598,
      "cias": 7599,
      "vysot": 7600,
      "PS": 7601,
      "trash": 7602,
      "oting": 7603,
      "ilia": 7604,
      "1777": 7605,
      "tact": 7606,
      "truck": 7607,
      "elementor": 7608,
      "dab": 7609,
      "jeun": 7610,
      "desc": 7611,
      "garage": 7612,
      "commands": 7613,
      "564": 7614,
      "faire": 7615,
      "3000": 7616,
      "acks": 7617,
      "maintenance": 7618,
      "1444": 7619,
      "native": 7620,
      "CN": 7621,
      "activities": 7622,
      "Mazda": 7623,
      "638": 7624,
      "1216": 7625,
      "892": 7626,
      "vc": 7627,
      "atom": 7628,
      "attra": 7629,
      "otzy": 7630,
      "award": 7631,
      "1225": 7632,
      "ext": 7633,
      "And": 7634,
      "bx": 7635,
      "typ": 7636,
      "banner": 7637,
      "ING": 7638,
      "robert": 7639,
      "gebur": 7640,
      "fox": 7641,
      "862": 7642,
      "PO": 7643,
      "evel": 7644,
      "wohnung": 7645,
      "jung": 7646,
      "boys": 7647,
      "adow": 7648,
      "016": 7649,
      "Bl": 7650,
      "Them": 7651,
      "cara": 7652,
      "rm": 7653,
      "rick": 7654,
      "jub": 7655,
      "oren": 7656,
      "automaty": 7657,
      "archi": 7658,
      "bridge": 7659,
      "emo": 7660,
      "czer": 7661,
      "sson": 7662,
      "philosoph": 7663,
      "fruehstuecks": 7664,
      "near": 7665,
      "hashtags": 7666,
      "zus": 7667,
      "qui": 7668,
      "kuber": 7669,
      "robo": 7670,
      "frequences": 7671,
      "koenig": 7672,
      "anmeldung": 7673,
      "ega": 7674,
      "planning": 7675,
      "kommen": 7676,
      "691": 7677,
      "plugin": 7678,
      "Pra": 7679,
      "lique": 7680,
      "wpis": 7681,
      "wolf": 7682,
      "eidh": 7683,
      "CZ": 7684,
      "vx": 7685,
      "hran": 7686,
      "sonder": 7687,
      "febru": 7688,
      "gambling": 7689,
      "zoom": 7690,
      "Sup": 7691,
      "skoda": 7692,
      "french": 7693,
      "zentrale": 7694,
      "023": 7695,
      "725": 7696,
      "905": 7697,
      "cake": 7698,
      "tei": 7699,
      "skiv": 7700,
      "contests": 7701,
      "ioy": 7702,
      "komple": 7703,
      "763": 7704,
      "lipse": 7705,
      "forschung": 7706,
      "arki": 7707,
      "puk": 7708,
      "scha": 7709,
      "voe": 7710,
      "624": 7711,
      "jy": 7712,
      "nowosci": 7713,
      "wiadom": 7714,
      "sparen": 7715,
      "Ein": 7716,
      "haber": 7717,
      "401": 7718,
      "jog": 7719,
      "qx": 7720,
      "prix": 7721,
      "bec": 7722,
      "deta": 7723,
      "ims": 7724,
      "ateau": 7725,
      "ugeot": 7726,
      "iling": 7727,
      "mount": 7728,
      "placement": 7729,
      "vari": 7730,
      "therapy": 7731,
      "588": 7732,
      "integration": 7733,
      "wroclaw": 7734,
      "gis": 7735,
      "781": 7736,
      "647": 7737,
      "wenyi": 7738,
      "szp": 7739,
      "entreprise": 7740,
      "dish": 7741,
      "inen": 7742,
      "onne": 7743,
      "fresh": 7744,
      "kowa": 7745,
      "kand": 7746,
      "itis": 7747,
      "spons": 7748,
      "boots": 7749,
      "KU": 7750,
      "dic": 7751,
      "haute": 7752,
      "peugeot": 7753,
      "suknie": 7754,
      "gent": 7755,
      "pornp": 7756,
      "elli": 7757,
      "wow": 7758,
      "kind": 7759,
      "301": 7760,
      "total": 7761,
      "medias": 7762,
      "Intensive": 7763,
      "scription": 7764,
      "pornpics": 7765,
      "1245": 7766,
      "cewenyi": 7767,
      "sued": 7768,
      "innovation": 7769,
      "deshevye": 7770,
      "kx": 7771,
      "branchen": 7772,
      "fruit": 7773,
      "Ly": 7774,
      "unterrichtsmaterial": 7775,
      "Pa": 7776,
      "gz": 7777,
      "voice": 7778,
      "netes": 7779,
      "basketball": 7780,
      "jny": 7781,
      "sas": 7782,
      "ryazan": 7783,
      "gradu": 7784,
      "budo": 7785,
      "cotton": 7786,
      "KW": 7787,
      "rabo": 7788,
      "submissions": 7789,
      "rx": 7790,
      "wszy": 7791,
      "prepar": 7792,
      "AULT": 7793,
      "szy": 7794,
      "reser": 7795,
      "konstru": 7796,
      "Loc": 7797,
      "791": 7798,
      "fik": 7799,
      "vp": 7800,
      "teur": 7801,
      "istra": 7802,
      "3025": 7803,
      "nest": 7804,
      "ultim": 7805,
      "stechnik": 7806,
      "walk": 7807,
      "advantage": 7808,
      "odziez": 7809,
      "907": 7810,
      "By": 7811,
      "olo": 7812,
      "bowl": 7813,
      "421": 7814,
      "vorsorge": 7815,
      "gne": 7816,
      "kamen": 7817,
      "tutorials": 7818,
      "dead": 7819,
      "ulation": 7820,
      "ervices": 7821,
      "secret": 7822,
      "loisirs": 7823,
      "bart": 7824,
      "hung": 7825,
      "1401": 7826,
      "Phys": 7827,
      "zhe": 7828,
      "container": 7829,
      "MM": 7830,
      "dres": 7831,
      "PE": 7832,
      "init": 7833,
      "642": 7834,
      "textil": 7835,
      "Access": 7836,
      "iven": 7837,
      "conce": 7838,
      "ario": 7839,
      "nowy": 7840,
      "nude": 7841,
      "cdn": 7842,
      "cuisine": 7843,
      "asing": 7844,
      "NR": 7845,
      "terra": 7846,
      "oke": 7847,
      "761": 7848,
      "825": 7849,
      "mozh": 7850,
      "tourismus": 7851,
      "haar": 7852,
      "batterie": 7853,
      "fmv": 7854,
      "745": 7855,
      "lio": 7856,
      "772": 7857,
      "Of": 7858,
      "pig": 7859,
      "vk": 7860,
      "dowe": 7861,
      "floor": 7862,
      "chocolate": 7863,
      "assignment": 7864,
      "DU": 7865,
      "dealer": 7866,
      "hals": 7867,
      "tho": 7868,
      "alpes": 7869,
      "mediat": 7870,
      "gast": 7871,
      "vinyl": 7872,
      "lers": 7873,
      "domar": 7874,
      "akadem": 7875,
      "koltso": 7876,
      "Bil": 7877,
      "pomorskie": 7878,
      "916": 7879,
      "1396": 7880,
      "trie": 7881,
      "helfer": 7882,
      "rate": 7883,
      "flanzen": 7884,
      "planirov": 7885,
      "kort": 7886,
      "1398": 7887,
      "TV": 7888,
      "dvigatel": 7889,
      "025": 7890,
      "EUR": 7891,
      "driver": 7892,
      "juni": 7893,
      "kubernetes": 7894,
      "domin": 7895,
      "electron": 7896,
      "esch": 7897,
      "weis": 7898,
      "conseils": 7899,
      "717": 7900,
      "bericht": 7901,
      "Duch": 7902,
      "8501": 7903,
      "562": 7904,
      "dragon": 7905,
      "intern": 7906,
      "skor": 7907,
      "aller": 7908,
      "casa": 7909,
      "sect": 7910,
      "spare": 7911,
      "obile": 7912,
      "farben": 7913,
      "leak": 7914,
      "heiz": 7915,
      "vog": 7916,
      "1300": 7917,
      "ships": 7918,
      "volo": 7919,
      "pictures": 7920,
      "RENAULT": 7921,
      "beat": 7922,
      "save": 7923,
      "771": 7924,
      "upt": 7925,
      "write": 7926,
      "schle": 7927,
      "ringe": 7928,
      "messages": 7929,
      "jx": 7930,
      "202505": 7931,
      "success": 7932,
      "przepis": 7933,
      "Mot": 7934,
      "acji": 7935,
      "assets": 7936,
      "hydra": 7937,
      "szpital": 7938,
      "nungen": 7939,
      "aps": 7940,
      "846": 7941,
      "ajax": 7942,
      "eps": 7943,
      "gru": 7944,
      "pressemitteilung": 7945,
      "colour": 7946,
      "ento": 7947,
      "zhnye": 7948,
      "sonnen": 7949,
      "itaets": 7950,
      "announcement": 7951,
      "itsa": 7952,
      "urun": 7953,
      "renov": 7954,
      "polityka": 7955,
      "714": 7956,
      "worth": 7957,
      "wool": 7958,
      "young": 7959,
      "XC": 7960,
      "employ": 7961,
      "pam": 7962,
      "chapter": 7963,
      "GI": 7964,
      "Pho": 7965,
      "mz": 7966,
      "empor": 7967,
      "lx": 7968,
      "locale": 7969,
      "WH": 7970,
      "impact": 7971,
      "JA": 7972,
      "uma": 7973,
      "comm": 7974,
      "boards": 7975,
      "buerger": 7976,
      "Qw": 7977,
      "tyn": 7978,
      "FO": 7979,
      "SO": 7980,
      "ving": 7981,
      "natura": 7982,
      "shampoo": 7983,
      "591": 7984,
      "uxe": 7985,
      "rouge": 7986,
      "rr": 7987,
      "electr": 7988,
      "gil": 7989,
      "former": 7990,
      "aluminium": 7991,
      "IMII": 7992,
      "TU": 7993,
      "fabric": 7994,
      "1215": 7995,
      "compo": 7996,
      "abel": 7997,
      "hydro": 7998,
      "numer": 7999,
      "MIIMII": 8000,
      "GLOBALR": 8001,
      "MIIMIIGLOBALR": 8002,
      "891": 8003,
      "kuh": 8004,
      "skr": 8005,
      "grid": 8006,
      "bingo": 8007,
      "Duchowo": 8008,
      "interior": 8009,
      "bird": 8010,
      "deere": 8011,
      "shut": 8012,
      "1397": 8013,
      "italy": 8014,
      "848": 8015,
      "904": 8016,
      "lc": 8017,
      "umb": 8018,
      "wert": 8019,
      "harmon": 8020,
      "esouar": 8021,
      "Item": 8022,
      "bong": 8023,
      "Ha": 8024,
      "dek": 8025,
      "daw": 8026,
      "571": 8027,
      "hx": 8028,
      "durch": 8029,
      "Kat": 8030,
      "singap": 8031,
      "As": 8032,
      "ivo": 8033,
      "coiff": 8034,
      "762": 8035,
      "phishing": 8036,
      "voll": 8037,
      "career": 8038,
      "736": 8039,
      "Am": 8040,
      "zin": 8041,
      "Therapist": 8042,
      "SI": 8043,
      "tekh": 8044,
      "diy": 8045,
      "themes": 8046,
      "unisex": 8047,
      "fussball": 8048,
      "alta": 8049,
      "rash": 8050,
      "544": 8051,
      "child": 8052,
      "taxi": 8053,
      "weekend": 8054,
      "soccer": 8055,
      "halle": 8056,
      "vladimir": 8057,
      "GF": 8058,
      "agra": 8059,
      "otzyvy": 8060,
      "549": 8061,
      "fes": 8062,
      "Bild": 8063,
      "xmlui": 8064,
      "szkola": 8065,
      "TN": 8066,
      "piel": 8067,
      "wypo": 8068,
      "898": 8069,
      "kay": 8070,
      "tout": 8071,
      "czki": 8072,
      "Entry": 8073,
      "1228": 8074,
      "zaj": 8075,
      "lato": 8076,
      "scott": 8077,
      "wov": 8078,
      "fine": 8079,
      "contre": 8080,
      "villes": 8081,
      "campus": 8082,
      "644": 8083,
      "gio": 8084,
      "krasnoyar": 8085,
      "apartment": 8086,
      "utbildning": 8087,
      "iving": 8088,
      "filiale": 8089,
      "783": 8090,
      "sleep": 8091,
      "766": 8092,
      "JX": 8093,
      "cio": 8094,
      "relev": 8095,
      "845": 8096,
      "948": 8097,
      "mask": 8098,
      "rtf": 8099,
      "GY": 8100,
      "rosen": 8101,
      "bible": 8102,
      "abe": 8103,
      "eclipse": 8104,
      "clients": 8105,
      "enfant": 8106,
      "sent": 8107,
      "vz": 8108,
      "klam": 8109,
      "Lam": 8110,
      "VI": 8111,
      "elly": 8112,
      "nachhalt": 8113,
      "bibtex": 8114,
      "sneaker": 8115,
      "spac": 8116,
      "must": 8117,
      "abroad": 8118,
      "drag": 8119,
      "eI": 8120,
      "yama": 8121,
      "fora": 8122,
      "flooring": 8123,
      "User": 8124,
      "isons": 8125,
      "lau": 8126,
      "hau": 8127,
      "eras": 8128,
      "svar": 8129,
      "veget": 8130,
      "581": 8131,
      "faqs": 8132,
      "715": 8133,
      "Ġ/@": 8134,
      "stattung": 8135,
      "Telemetry": 8136,
      "hockey": 8137,
      "pect": 8138,
      "medy": 8139,
      "mama": 8140,
      "zan": 8141,
      "641": 8142,
      "annes": 8143,
      "informacje": 8144,
      "jal": 8145,
      "1415": 8146,
      "HD": 8147,
      "geden": 8148,
      "seva": 8149,
      "ishi": 8150,
      "JQ": 8151,
      "KQ": 8152,
      "sir": 8153,
      "edi": 8154,
      "poch": 8155,
      "kuchen": 8156,
      "HU": 8157,
      "lya": 8158,
      "bod": 8159,
      "meine": 8160,
      "847": 8161,
      "823": 8162,
      "Document": 8163,
      "Christ": 8164,
      "bian": 8165,
      "rett": 8166,
      "labw": 8167,
      "gifts": 8168,
      "Ash": 8169,
      "MF": 8170,
      "uef": 8171,
      "relax": 8172,
      "skivor": 8173,
      "599": 8174,
      "1379": 8175,
      "osen": 8176,
      "flag": 8177,
      "742": 8178,
      "marit": 8179,
      "industrie": 8180,
      "indian": 8181,
      "eidi": 8182,
      "artis": 8183,
      "phones": 8184,
      "fruehstuecksfernsehen": 8185,
      "liches": 8186,
      "loween": 8187,
      "Ġ/+": 8188,
      "026": 8189,
      "rodz": 8190,
      "ktionen": 8191,
      "aktivitaet": 8192,
      "695": 8193,
      "Emer": 8194,
      "nantes": 8195,
      "pham": 8196,
      "apol": 8197,
      "wnik": 8198,
      "zyc": 8199,
      "izle": 8200,
      "wallet": 8201,
      "ture": 8202,
      "robot": 8203,
      "references": 8204,
      "sitz": 8205,
      "teh": 8206,
      "728": 8207,
      "MQ": 8208,
      "eniya": 8209,
      "bea": 8210,
      "testing": 8211,
      "Category": 8212,
      "shosse": 8213,
      "bebe": 8214,
      "appro": 8215,
      "filial": 8216,
      "nf": 8217,
      "frit": 8218,
      "belle": 8219,
      "pped": 8220,
      "uehle": 8221,
      "812": 8222,
      "ipad": 8223,
      "wm": 8224,
      "classe": 8225,
      "etu": 8226,
      "Press": 8227,
      "akia": 8228,
      "stellung": 8229,
      "gig": 8230,
      "esten": 8231,
      "soul": 8232,
      "hler": 8233,
      "ladyo": 8234,
      "emang": 8235,
      "iane": 8236,
      "jersey": 8237,
      "Mg": 8238,
      "wanie": 8239,
      "kraken": 8240,
      "trailer": 8241,
      "neuf": 8242,
      "coaster": 8243,
      "buero": 8244,
      "1755": 8245,
      "882": 8246,
      "cac": 8247,
      "yas": 8248,
      "nego": 8249,
      "ency": 8250,
      "itation": 8251,
      "uben": 8252,
      "fakta": 8253,
      "aktion": 8254,
      "pts": 8255,
      "ropol": 8256,
      "flam": 8257,
      "942": 8258,
      "necklace": 8259,
      "nick": 8260,
      "balance": 8261,
      "bleu": 8262,
      "haushalt": 8263,
      "petersburg": 8264,
      "828": 8265,
      "ikh": 8266,
      "herbst": 8267,
      "github": 8268,
      "togel": 8269,
      "NO": 8270,
      "boer": 8271,
      "endnote": 8272,
      "uvr": 8273,
      "proce": 8274,
      "children": 8275,
      "widerru": 8276,
      "ZA": 8277,
      "boss": 8278,
      "824": 8279,
      "1996": 8280,
      "genre": 8281,
      "ksiaz": 8282,
      "leipzig": 8283,
      "1763": 8284,
      "rhone": 8285,
      "pull": 8286,
      "Sex": 8287,
      "nica": 8288,
      "elf": 8289,
      "pau": 8290,
      "povo": 8291,
      "1100": 8292,
      "About": 8293,
      "fragen": 8294,
      "clus": 8295,
      "statistics": 8296,
      "maer": 8297,
      "ogloszenia": 8298,
      "ocean": 8299,
      "moc": 8300,
      "zoo": 8301,
      "NQ": 8302,
      "emberg": 8303,
      "ashi": 8304,
      "monitoring": 8305,
      "909": 8306,
      "alis": 8307,
      "migration": 8308,
      "797": 8309,
      "wt": 8310,
      "teen": 8311,
      "parents": 8312,
      "owanie": 8313,
      "TY": 8314,
      "geo": 8315,
      "561": 8316,
      "639": 8317,
      "inskij": 8318,
      "jahres": 8319,
      "technical": 8320,
      "696": 8321,
      "robe": 8322,
      "welcome": 8323,
      "diaf": 8324,
      "1177": 8325,
      "ruck": 8326,
      "polic": 8327,
      "ays": 8328,
      "nies": 8329,
      "costa": 8330,
      "kirchen": 8331,
      "jin": 8332,
      "leks": 8333,
      "musique": 8334,
      "zelen": 8335,
      "church": 8336,
      "MU": 8337,
      "umwelt": 8338,
      "joomla": 8339,
      "829": 8340,
      "elles": 8341,
      "chef": 8342,
      "sys": 8343,
      "814": 8344,
      "HE": 8345,
      "mans": 8346,
      "820": 8347,
      "1124": 8348,
      "noj": 8349,
      "luk": 8350,
      "where": 8351,
      "zahlungs": 8352,
      "hygien": 8353,
      "contacts": 8354,
      "ergebnisse": 8355,
      "zv": 8356,
      "aften": 8357,
      "every": 8358,
      "sout": 8359,
      "buff": 8360,
      "prakt": 8361,
      "function": 8362,
      "HO": 8363,
      "aryProduct": 8364,
      "vysotke": 8365,
      "krov": 8366,
      "rise": 8367,
      "1115": 8368,
      "kout": 8369,
      "illon": 8370,
      "journey": 8371,
      "SX": 8372,
      "dus": 8373,
      "Repository": 8374,
      "./": 8375,
      "lower": 8376,
      "cki": 8377,
      "dlja": 8378,
      "796": 8379,
      "trape": 8380,
      "NX": 8381,
      "anon": 8382,
      "lawy": 8383,
      "gebi": 8384,
      "ZU": 8385,
      "tha": 8386,
      "----": 8387,
      "formul": 8388,
      "qo": 8389,
      "atar": 8390,
      "rae": 8391,
      "trading": 8392,
      "teilungen": 8393,
      "murman": 8394,
      "cosmet": 8395,
      "755": 8396,
      "Apr": 8397,
      "speakers": 8398,
      "VW": 8399,
      "arek": 8400,
      "thermo": 8401,
      "spielplan": 8402,
      "pressemitteilungen": 8403,
      "865": 8404,
      "getting": 8405,
      "marktplatz": 8406,
      "Fahr": 8407,
      "gograd": 8408,
      "valley": 8409,
      "associations": 8410,
      "problem": 8411,
      "automat": 8412,
      "tube": 8413,
      "yen": 8414,
      "neusta": 8415,
      "functions": 8416,
      "Not": 8417,
      "Su": 8418,
      "skaja": 8419,
      "PQ": 8420,
      "1997": 8421,
      "diff": 8422,
      "myresults": 8423,
      "obituary": 8424,
      "837": 8425,
      "ledig": 8426,
      "frankfurt": 8427,
      "10128": 8428,
      "moz": 8429,
      "nail": 8430,
      "resid": 8431,
      "wochen": 8432,
      "gour": 8433,
      "brush": 8434,
      "volgograd": 8435,
      "intelli": 8436,
      "schluessel": 8437,
      "athl": 8438,
      "827": 8439,
      "914": 8440,
      "rak": 8441,
      "ckie": 8442,
      "burn": 8443,
      "take": 8444,
      "acheter": 8445,
      "foundation": 8446,
      "exercices": 8447,
      "nutr": 8448,
      "gros": 8449,
      "Jul": 8450,
      "2520": 8451,
      "versand": 8452,
      "/@": 8453,
      "oak": 8454,
      "options": 8455,
      "ukra": 8456,
      "enschutz": 8457,
      "568": 8458,
      "927": 8459,
      "jem": 8460,
      "relig": 8461,
      "monta": 8462,
      "swi": 8463,
      "kursy": 8464,
      "michur": 8465,
      "gruppen": 8466,
      "rop": 8467,
      "electro": 8468,
      "Sep": 8469,
      "ZX": 8470,
      "bv": 8471,
      "isations": 8472,
      "wee": 8473,
      "541": 8474,
      "kuenst": 8475,
      "isol": 8476,
      "ieu": 8477,
      "komponent": 8478,
      "934": 8479,
      "Fam": 8480,
      "2028": 8481,
      "imm": 8482,
      "coupe": 8483,
      "mois": 8484,
      "weihnachten": 8485,
      "configurator": 8486,
      "926": 8487,
      "temps": 8488,
      "personen": 8489,
      "vio": 8490,
      "uvrir": 8491,
      "HY": 8492,
      "Turn": 8493,
      "opinie": 8494,
      "ZQ": 8495,
      "kranken": 8496,
      "539": 8497,
      "imp": 8498,
      "shu": 8499,
      "deltia": 8500,
      "1126": 8501,
      "lq": 8502,
      "iec": 8503,
      "seille": 8504,
      "kissen": 8505,
      "ebooks": 8506,
      "upp": 8507,
      "809": 8508,
      "apis": 8509,
      "recuper": 8510,
      "otdelka": 8511,
      "did": 8512,
      "1800": 8513,
      "bush": 8514,
      "ttemberg": 8515,
      "anovo": 8516,
      "operations": 8517,
      "oka": 8518,
      "frt": 8519,
      "Nz": 8520,
      "rzh": 8521,
      "builder": 8522,
      "parapharmacie": 8523,
      "LU": 8524,
      "SF": 8525,
      "arn": 8526,
      "inum": 8527,
      "legen": 8528,
      "whiskies": 8529,
      "lung": 8530,
      "inqu": 8531,
      "530": 8532,
      "Down": 8533,
      "SR": 8534,
      "igne": 8535,
      "verkauf": 8536,
      "chelyab": 8537,
      "messageboard": 8538,
      "esen": 8539,
      "creative": 8540,
      "hog": 8541,
      "verse": 8542,
      "782": 8543,
      "792": 8544,
      "919": 8545,
      "ots": 8546,
      "pick": 8547,
      "asure": 8548,
      "appoint": 8549,
      "gom": 8550,
      "1147": 8551,
      "studium": 8552,
      "928": 8553,
      "rk": 8554,
      "reu": 8555,
      "spit": 8556,
      "colle": 8557,
      "washington": 8558,
      "798": 8559,
      "1045": 8560,
      "listPosts": 8561,
      "hv": 8562,
      "1148": 8563,
      "mountain": 8564,
      "Emergency": 8565,
      "917": 8566,
      "monika": 8567,
      "cabinet": 8568,
      "cleaning": 8569,
      "xp": 8570,
      "parad": 8571,
      "wheel": 8572,
      "prosk": 8573,
      "bucht": 8574,
      "institute": 8575,
      "795": 8576,
      "route": 8577,
      "dura": 8578,
      "aket": 8579,
      "wett": 8580,
      "thet": 8581,
      "tuc": 8582,
      "/(": 8583,
      "WE": 8584,
      "toal": 8585,
      "moul": 8586,
      "fos": 8587,
      "oliv": 8588,
      "ingredi": 8589,
      "dubai": 8590,
      "acyjne": 8591,
      "bum": 8592,
      "aren": 8593,
      "tula": 8594,
      "thesia": 8595,
      "1055": 8596,
      "olas": 8597,
      "seminare": 8598,
      "ikat": 8599,
      "liquid": 8600,
      "Nj": 8601,
      "rules": 8602,
      "582": 8603,
      "digit": 8604,
      "jordan": 8605,
      "fenster": 8606,
      "ridge": 8607,
      "option": 8608,
      "741": 8609,
      "operation": 8610,
      "-~": 8611,
      "Port": 8612,
      "wak": 8613,
      "atti": 8614,
      "director": 8615,
      "838": 8616,
      "==": 8617,
      "NI": 8618,
      "Ur": 8619,
      "nq": 8620,
      "capital": 8621,
      "labs": 8622,
      "Shop": 8623,
      "unk": 8624,
      "certific": 8625,
      "animal": 8626,
      "698": 8627,
      "HL": 8628,
      "lind": 8629,
      "DV": 8630,
      "avail": 8631,
      "2706": 8632,
      "goto": 8633,
      "721": 8634,
      "TP": 8635,
      "zyw": 8636,
      "zb": 8637,
      "duo": 8638,
      "reunion": 8639,
      "ilov": 8640,
      "1220": 8641,
      "lighting": 8642,
      "Br": 8643,
      "zio": 8644,
      "767": 8645,
      "1768": 8646,
      "turysty": 8647,
      "kuznet": 8648,
      "910": 8649,
      "Cor": 8650,
      "fv": 8651,
      "decouvrir": 8652,
      "gv": 8653,
      "0004": 8654,
      "tutorial": 8655,
      "gj": 8656,
      "expo": 8657,
      "florida": 8658,
      "pixel": 8659,
      "sant": 8660,
      "noi": 8661,
      "neues": 8662,
      "BY": 8663,
      "HI": 8664,
      "leiter": 8665,
      "technic": 8666,
      "aneia": 8667,
      "woj": 8668,
      "pilates": 8669,
      "KBU": 8670,
      "729": 8671,
      "assa": 8672,
      "543": 8673,
      "1123": 8674,
      "stopol": 8675,
      "Physical": 8676,
      "1969": 8677,
      "contin": 8678,
      "werkzeuge": 8679,
      "CP": 8680,
      "fight": 8681,
      "aman": 8682,
      "gabe": 8683,
      "advis": 8684,
      "danlage": 8685,
      "CQ": 8686,
      "verband": 8687,
      "racing": 8688,
      "schluss": 8689,
      "aba": 8690,
      "502": 8691,
      "eri": 8692,
      "dual": 8693,
      "schloss": 8694,
      "brueck": 8695,
      "533": 8696,
      "scol": 8697,
      "1048": 8698,
      "zeiten": 8699,
      "zesta": 8700,
      "fotografie": 8701,
      "inspiration": 8702,
      "olar": 8703,
      "1113": 8704,
      "wych": 8705,
      "erschaft": 8706,
      "622": 8707,
      "parcours": 8708,
      "1201": 8709,
      "tk": 8710,
      "vote": 8711,
      "tourism": 8712,
      "promocje": 8713,
      "exec": 8714,
      "joux": 8715,
      "piecz": 8716,
      "nip": 8717,
      "hai": 8718,
      "horn": 8719,
      "ohr": 8720,
      "Cat": 8721,
      "NG": 8722,
      "bry": 8723,
      "Ersatzteile": 8724,
      "HQ": 8725,
      "hack": 8726,
      "ogorsk": 8727,
      "hyper": 8728,
      "fond": 8729,
      "categoria": 8730,
      "planet": 8731,
      "binsk": 8732,
      "895": 8733,
      "affil": 8734,
      "delivery": 8735,
      "sevastopol": 8736,
      "ksk": 8737,
      "alz": 8738,
      "1285": 8739,
      "agro": 8740,
      "lectures": 8741,
      "mint": 8742,
      "geldanlage": 8743,
      "concept": 8744,
      "serwis": 8745,
      "identity": 8746,
      "bord": 8747,
      "stern": 8748,
      "mlung": 8749,
      "wolfc": 8750,
      "psycholog": 8751,
      "rosh": 8752,
      "laur": 8753,
      "1503": 8754,
      "chau": 8755,
      "tub": 8756,
      "lemon": 8757,
      "visa": 8758,
      "pricing": 8759,
      "RT": 8760,
      "sonn": 8761,
      "Anton": 8762,
      "OA": 8763,
      "Wor": 8764,
      "path": 8765,
      "ushi": 8766,
      "butik": 8767,
      "agi": 8768,
      "loud": 8769,
      "sein": 8770,
      "isto": 8771,
      "widerrufs": 8772,
      "649": 8773,
      "rar": 8774,
      "ised": 8775,
      "herit": 8776,
      "perifereiaki": 8777,
      "Nor": 8778,
      "listevents": 8779,
      "768": 8780,
      "viet": 8781,
      "unterricht": 8782,
      "reactions": 8783,
      "competences": 8784,
      "multimedia": 8785,
      "gedenk": 8786,
      "918": 8787,
      "XQ": 8788,
      "revol": 8789,
      "1119": 8790,
      "kreditkarten": 8791,
      "wolfcraft": 8792,
      "Hol": 8793,
      "uoa": 8794,
      "stay": 8795,
      "besuchs": 8796,
      "these": 8797,
      "franch": 8798,
      "fred": 8799,
      "wiadomosci": 8800,
      "Sk": 8801,
      "Vol": 8802,
      "chees": 8803,
      "aqua": 8804,
      "apt": 8805,
      "parks": 8806,
      "sucht": 8807,
      "recuperation": 8808,
      "aru": 8809,
      "schnitt": 8810,
      "gebrauch": 8811,
      "RepositoryEntry": 8812,
      "643": 8813,
      "hud": 8814,
      "abad": 8815,
      "emon": 8816,
      "1787": 8817,
      "zentrum": 8818,
      "trashed": 8819,
      "dul": 8820,
      "Lin": 8821,
      "Str": 8822,
      "poz": 8823,
      "phia": 8824,
      "mez": 8825,
      "photography": 8826,
      "885": 8827,
      "seller": 8828,
      "FE": 8829,
      "rip": 8830,
      "manga": 8831,
      "praca": 8832,
      "stil": 8833,
      "1700": 8834,
      "singapore": 8835,
      "veck": 8836,
      "1128": 8837,
      "fried": 8838,
      "xinwen": 8839,
      "nol": 8840,
      "KV": 8841,
      "kush": 8842,
      "masch": 8843,
      "lut": 8844,
      "jq": 8845,
      "propri": 8846,
      "boks": 8847,
      "spark": 8848,
      "making": 8849,
      "rezension": 8850,
      "897": 8851,
      "946": 8852,
      "ienie": 8853,
      "zavod": 8854,
      "wander": 8855,
      "square": 8856,
      "Gra": 8857,
      "fusion": 8858,
      "mindmap": 8859,
      "924": 8860,
      "1504": 8861,
      "berez": 8862,
      "komun": 8863,
      "avtom": 8864,
      "1408": 8865,
      "sleeve": 8866,
      "Cm": 8867,
      "Mw": 8868,
      "unknown": 8869,
      "points": 8870,
      "detailansicht": 8871,
      "mande": 8872,
      "setting": 8873,
      "zeichnis": 8874,
      "Ja": 8875,
      "tradition": 8876,
      "Start": 8877,
      "parla": 8878,
      "deutsche": 8879,
      "schwe": 8880,
      "wart": 8881,
      "steph": 8882,
      "kurz": 8883,
      "laptop": 8884,
      "atos": 8885,
      "1127": 8886,
      "1138": 8887,
      "maki": 8888,
      "3500": 8889,
      "202503": 8890,
      "867": 8891,
      "LL": 8892,
      "gutsch": 8893,
      "gegen": 8894,
      "esser": 8895,
      "previews": 8896,
      "trek": 8897,
      "hid": 8898,
      "1116": 8899,
      "Leben": 8900,
      "1900": 8901,
      "Off": 8902,
      "sind": 8903,
      "grip": 8904,
      "592": 8905,
      "murmansk": 8906,
      "913": 8907,
      "sag": 8908,
      "amet": 8909,
      "avy": 8910,
      "bara": 8911,
      "ausstellungen": 8912,
      "929": 8913,
      "wski": 8914,
      "consum": 8915,
      "marseille": 8916,
      "oker": 8917,
      "shoul": 8918,
      "nymi": 8919,
      "katast": 8920,
      "sustain": 8921,
      "Sw": 8922,
      "athens": 8923,
      "ARC": 8924,
      "pere": 8925,
      "delete": 8926,
      "pots": 8927,
      "bob": 8928,
      "guan": 8929,
      "ningen": 8930,
      "Ans": 8931,
      "keyword": 8932,
      ",-": 8933,
      "samt": 8934,
      "0022480": 8935,
      "JV": 8936,
      "834": 8937,
      "selbst": 8938,
      "karl": 8939,
      "anlagen": 8940,
      "1080": 8941,
      "1920": 8942,
      "eds": 8943,
      "besuchsinformation": 8944,
      "896": 8945,
      "TW": 8946,
      "halloween": 8947,
      "ogon": 8948,
      "lingu": 8949,
      "slim": 8950,
      "arbeitgeber": 8951,
      "javad": 8952,
      "cylin": 8953,
      "Die": 8954,
      "ZH": 8955,
      "Za": 8956,
      "Ashley": 8957,
      "oste": 8958,
      "organic": 8959,
      "630": 8960,
      "1909": 8961,
      "noslas": 8962,
      "july": 8963,
      "sobak": 8964,
      "projet": 8965,
      "scan": 8966,
      "myif": 8967,
      "ultural": 8968,
      "powder": 8969,
      "sprechpartner": 8970,
      "entwicklung": 8971,
      "avia": 8972,
      "BCcks": 8973,
      "testimonial": 8974,
      "1756": 8975,
      "Comput": 8976,
      "adapter": 8977,
      "908": 8978,
      "roux": 8979,
      "still": 8980,
      "1129": 8981,
      "that": 8982,
      "cote": 8983,
      "muzy": 8984,
      "yuzh": 8985,
      "rohr": 8986,
      "1030": 8987,
      "broch": 8988,
      "wydarzenie": 8989,
      "ske": 8990,
      "sov": 8991,
      "lmu": 8992,
      "root": 8993,
      "tochno": 8994,
      "porto": 8995,
      "boll": 8996,
      "paroles": 8997,
      "997": 8998,
      "PV": 8999,
      "propos": 9000,
      "obil": 9001,
      "ltd": 9002,
      "Resource": 9003,
      "866": 9004,
      "cub": 9005,
      "prodot": 9006,
      "dolnoslas": 9007,
      "looker": 9008,
      "SD": 9009,
      "IQ": 9010,
      "iar": 9011,
      "zte": 9012,
      "solo": 9013,
      "diary": 9014,
      "lichke": 9015,
      "virus": 9016,
      "yamaha": 9017,
      "Dec": 9018,
      "nin": 9019,
      "1840": 9020,
      "mah": 9021,
      "nade": 9022,
      "websites": 9023,
      "introduction": 9024,
      "gesellschaft": 9025,
      "ixun": 9026,
      "pets": 9027,
      "franca": 9028,
      "fich": 9029,
      "zj": 9030,
      "1908": 9031,
      "farg": 9032,
      "animation": 9033,
      "knit": 9034,
      "krym": 9035,
      "ered": 9036,
      "panorama": 9037,
      "stroitelstvo": 9038,
      "nutrition": 9039,
      "SQ": 9040,
      "finder": 9041,
      "klasse": 9042,
      "publish": 9043,
      "bash": 9044,
      "locat": 9045,
      "pvc": 9046,
      "712": 9047,
      "return": 9048,
      "suite": 9049,
      "tribune": 9050,
      "Pe": 9051,
      "battery": 9052,
      "nouvelle": 9053,
      "Themen": 9054,
      "KL": 9055,
      "sunglasses": 9056,
      "luxury": 9057,
      "722": 9058,
      "enge": 9059,
      "stab": 9060,
      "carbon": 9061,
      "gala": 9062,
      "choix": 9063,
      "elast": 9064,
      "does": 9065,
      "economy": 9066,
      "diafaneia": 9067,
      "VE": 9068,
      "___": 9069,
      "029": 9070,
      "Kar": 9071,
      "zem": 9072,
      "bolshoy": 9073,
      "826": 9074,
      "lunch": 9075,
      "ods": 9076,
      "rozry": 9077,
      "isy": 9078,
      "werke": 9079,
      "titled": 9080,
      "sachsen": 9081,
      "samochody": 9082,
      "YQ": 9083,
      "zp": 9084,
      "ateurs": 9085,
      "ultimate": 9086,
      "ucz": 9087,
      "zki": 9088,
      "tober": 9089,
      "haenger": 9090,
      "crypto": 9091,
      "Technologist": 9092,
      "906": 9093,
      "kres": 9094,
      "shang": 9095,
      "exact": 9096,
      "hobby": 9097,
      "porcel": 9098,
      "bronze": 9099,
      "FQ": 9100,
      "JE": 9101,
      "17634": 9102,
      "evenemang": 9103,
      "947": 9104,
      "Gre": 9105,
      "oik": 9106,
      "gaeste": 9107,
      "920": 9108,
      "oned": 9109,
      "lop": 9110,
      "dian": 9111,
      "arthra": 9112,
      "horse": 9113,
      "dveri": 9114,
      "prodotto": 9115,
      "trad": 9116,
      "qh": 9117,
      "actu": 9118,
      "piers": 9119,
      "povorot": 9120,
      "Hel": 9121,
      "edt": 9122,
      "1395": 9123,
      "logies": 9124,
      "shan": 9125,
      "economie": 9126,
      "dart": 9127,
      "hinter": 9128,
      "FC": 9129,
      "JO": 9130,
      "drop": 9131,
      "cid": 9132,
      "inner": 9133,
      "iska": 9134,
      "Comment": 9135,
      "spal": 9136,
      "nikov": 9137,
      "Ht": 9138,
      "ZW": 9139,
      "arbeiten": 9140,
      "terras": 9141,
      "lucky": 9142,
      "schulen": 9143,
      "ulty": 9144,
      "atiques": 9145,
      "qv": 9146,
      "atlant": 9147,
      "1114": 9148,
      "kurg": 9149,
      "leo": 9150,
      "weather": 9151,
      "historia": 9152,
      "profnast": 9153,
      "matrix": 9154,
      "027": 9155,
      "Mu": 9156,
      "proof": 9157,
      "sukien": 9158,
      "homedetails": 9159,
      "935": 9160,
      "GQ": 9161,
      "gie": 9162,
      "1118": 9163,
      "mods": 9164,
      "bala": 9165,
      "adult": 9166,
      "kalendarz": 9167,
      "zell": 9168,
      "abilities": 9169,
      "PP": 9170,
      "1046": 9171,
      "abid": 9172,
      "einricht": 9173,
      "Disk": 9174,
      "ilie": 9175,
      "kolle": 9176,
      "administratives": 9177,
      "MY": 9178,
      "yes": 9179,
      "sklad": 9180,
      "seine": 9181,
      "1995": 9182,
      "1696": 9183,
      "bain": 9184,
      "ired": 9185,
      "bars": 9186,
      "devices": 9187,
      "kits": 9188,
      "ares": 9189,
      "TQ": 9190,
      "1146": 9191,
      "kreuz": 9192,
      "wetter": 9193,
      "yge": 9194,
      "elki": 9195,
      "_-_": 9196,
      "coiffure": 9197,
      "lf": 9198,
      "tung": 9199,
      "armo": 9200,
      "584": 9201,
      "bles": 9202,
      "lw": 9203,
      "sib": 9204,
      "2029": 9205,
      "pharm": 9206,
      "835": 9207,
      "1136": 9208,
      "posutochno": 9209,
      "parlafoi": 9210,
      "Pat": 9211,
      "smith": 9212,
      "aliment": 9213,
      "1076": 9214,
      "verzeichnis": 9215,
      "notifications": 9216,
      "protect": 9217,
      "birthday": 9218,
      "cant": 9219,
      "1033": 9220,
      "sexy": 9221,
      "dolnoslaskie": 9222,
      "glowna": 9223,
      "stom": 9224,
      "coupon": 9225,
      "vgH": 9226,
      "respons": 9227,
      "mono": 9228,
      "tap": 9229,
      "thre": 9230,
      "3125": 9231,
      "darmo": 9232,
      "5000": 9233,
      "omen": 9234,
      "fryz": 9235,
      "Proje": 9236,
      "charles": 9237,
      "zube": 9238,
      "1112": 9239,
      "berger": 9240,
      "database": 9241,
      "veter": 9242,
      "gK": 9243,
      "gote": 9244,
      "ruch": 9245,
      "tvn": 9246,
      "sjuk": 9247,
      "apartamenty": 9248,
      "hig": 9249,
      "deluxe": 9250,
      "benefits": 9251,
      "799": 9252,
      "cum": 9253,
      "oise": 9254,
      "tti": 9255,
      "charge": 9256,
      "istor": 9257,
      "parfum": 9258,
      "years": 9259,
      "zamow": 9260,
      "qt": 9261,
      "republic": 9262,
      "donate": 9263,
      "individual": 9264,
      "spell": 9265,
      "condition": 9266,
      "equipe": 9267,
      "universal": 9268,
      "zycia": 9269,
      "annt": 9270,
      "chiro": 9271,
      "samples": 9272,
      "sang": 9273,
      "chris": 9274,
      "flowers": 9275,
      "javadoc": 9276,
      "Art": 9277,
      "alk": 9278,
      "ilsk": 9279,
      "nami": 9280,
      "028": 9281,
      "937": 9282,
      "inch": 9283,
      "realiz": 9284,
      "anzeigen": 9285,
      "Documentation": 9286,
      "ught": 9287,
      "likes": 9288,
      "WD": 9289,
      "pion": 9290,
      "seriya": 9291,
      "kurgan": 9292,
      "540": 9293,
      "Cy": 9294,
      "PKG": 9295,
      "ZY": 9296,
      "qj": 9297,
      "ivan": 9298,
      "perfect": 9299,
      "formulare": 9300,
      "away": 9301,
      "indoor": 9302,
      "argentina": 9303,
      "BCcksspiel": 9304,
      ",,": 9305,
      "eser": 9306,
      "0067": 9307,
      "mysh": 9308,
      "brook": 9309,
      "Esc": 9310,
      "cass": 9311,
      "klimat": 9312,
      "rue": 9313,
      "obe": 9314,
      "friger": 9315,
      "wetten": 9316,
      "Li": 9317,
      "nich": 9318,
      "webinar": 9319,
      "espir": 9320,
      "OQ": 9321,
      "rough": 9322,
      "things": 9323,
      "filialen": 9324,
      "JU": 9325,
      "dum": 9326,
      "ield": 9327,
      "bryansk": 9328,
      "20250": 9329,
      "growth": 9330,
      "bic": 9331,
      "salt": 9332,
      "stavropol": 9333,
      "945": 9334,
      "guard": 9335,
      "vagg": 9336,
      "xQ": 9337,
      "hni": 9338,
      "cropped": 9339,
      "Kultur": 9340,
      "Oct": 9341,
      "wsze": 9342,
      "844": 9343,
      "trump": 9344,
      "sures": 9345,
      "Stre": 9346,
      "stift": 9347,
      "tav": 9348,
      "krist": 9349,
      "linguist": 9350,
      "arium": 9351,
      "meer": 9352,
      "parten": 9353,
      "lose": 9354,
      "1546": 9355,
      "janster": 9356,
      "fagel": 9357,
      "Jan": 9358,
      "epix": 9359,
      "kosmos": 9360,
      "started": 9361,
      "provence": 9362,
      "excurs": 9363,
      "pain": 9364,
      "chez": 9365,
      "qd": 9366,
      "esa": 9367,
      "acces": 9368,
      "soins": 9369,
      "crit": 9370,
      "ziele": 9371,
      "bundeslander": 9372,
      "XY": 9373,
      "strip": 9374,
      "hui": 9375,
      "maxi": 9376,
      "ZE": 9377,
      "togg": 9378,
      "8543": 9379,
      "mineral": 9380,
      "zomka": 9381,
      "flore": 9382,
      "charger": 9383,
      "flach": 9384,
      "Bw": 9385,
      "mort": 9386,
      "rovo": 9387,
      "1097": 9388,
      "kova": 9389,
      "inox": 9390,
      "dental": 9391,
      "GV": 9392,
      "jud": 9393,
      "sciences": 9394,
      "lotte": 9395,
      "immobilie": 9396,
      "followers": 9397,
      "boerse": 9398,
      "brazil": 9399,
      "Sort": 9400,
      "aska": 9401,
      "ivity": 9402,
      "marc": 9403,
      "opel": 9404,
      "begag": 9405,
      "memor": 9406,
      "CK": 9407,
      "Fra": 9408,
      "sper": 9409,
      "status": 9410,
      "blogspot": 9411,
      "Diskussion": 9412,
      "Jw": 9413,
      "bem": 9414,
      "ruza": 9415,
      "Ta": 9416,
      "stit": 9417,
      "reader": 9418,
      "informations": 9419,
      "salz": 9420,
      "paket": 9421,
      "ortho": 9422,
      "clothes": 9423,
      "rovsk": 9424,
      "Locale": 9425,
      "arh": 9426,
      "carto": 9427,
      "nggallery": 9428,
      "dich": 9429,
      "ops": 9430,
      "redning": 9431,
      "kha": 9432,
      "eren": 9433,
      "loe": 9434,
      "bern": 9435,
      "uchom": 9436,
      "belt": 9437,
      "eman": 9438,
      "heritage": 9439,
      "BH": 9440,
      "inv": 9441,
      "osobo": 9442,
      "portrait": 9443,
      "kuenstler": 9444,
      "inquiry": 9445,
      "rozrywka": 9446,
      "/:": 9447,
      "elan": 9448,
      "YS": 9449,
      "lion": 9450,
      "acry": 9451,
      "odds": 9452,
      "plain": 9453,
      "abidjan": 9454,
      "BP": 9455,
      "grud": 9456,
      "bly": 9457,
      "aleia": 9458,
      "worldtribune": 9459,
      "plastic": 9460,
      "Elect": 9461,
      "plakat": 9462,
      "ENT": 9463,
      "falen": 9464,
      "selection": 9465,
      "oeffent": 9466,
      "Cre": 9467,
      "stir": 9468,
      "1095": 9469,
      "dialog": 9470,
      "xxx": 9471,
      "1155": 9472,
      "estre": 9473,
      "monte": 9474,
      "publ": 9475,
      "modele": 9476,
      "rass": 9477,
      "slow": 9478,
      "deaux": 9479,
      "betrieb": 9480,
      "tadala": 9481,
      "TC": 9482,
      "agric": 9483,
      "lenie": 9484,
      "jaw": 9485,
      "Ka": 9486,
      "Sto": 9487,
      "VQ": 9488,
      "ktura": 9489,
      "tery": 9490,
      "circus": 9491,
      "bean": 9492,
      "chaef": 9493,
      "sortir": 9494,
      "messer": 9495,
      "Class": 9496,
      "Is": 9497,
      "setLocale": 9498,
      "syllog": 9499,
      "Gro": 9500,
      "degree": 9501,
      "gers": 9502,
      "quad": 9503,
      "parkov": 9504,
      "blumen": 9505,
      "helios": 9506,
      "toggle": 9507,
      "terns": 9508,
      "teilung": 9509,
      "honey": 9510,
      "aksess": 9511,
      "voyage": 9512,
      "ielle": 9513,
      "employe": 9514,
      "michal": 9515,
      "1002": 9516,
      "bright": 9517,
      "pret": 9518,
      "ppel": 9519,
      "IMP": 9520,
      "Zw": 9521,
      "cji": 9522,
      "Step": 9523,
      "1043": 9524,
      "feedback": 9525,
      "912": 9526,
      "GW": 9527,
      "rift": 9528,
      "shipin": 9529,
      "vwH": 9530,
      "vegas": 9531,
      "consulting": 9532,
      "tadalafil": 9533,
      "Dat": 9534,
      "SM": 9535,
      "obl": 9536,
      "terap": 9537,
      "mental": 9538,
      "fahren": 9539,
      "payments": 9540,
      "prud": 9541,
      "ensemble": 9542,
      "pantel": 9543,
      "1933": 9544,
      "bildungen": 9545,
      "densch": 9546,
      "troubles": 9547,
      "krakow": 9548,
      "wszyst": 9549,
      "indon": 9550,
      "dvd": 9551,
      "krasnoyarsk": 9552,
      "ching": 9553,
      "apid": 9554,
      "thers": 9555,
      "hlen": 9556,
      "Ra": 9557,
      "ypt": 9558,
      "pyati": 9559,
      "object": 9560,
      "portugal": 9561,
      "toalett": 9562,
      "untitled": 9563,
      "Sub": 9564,
      "dau": 9565,
      "atro": 9566,
      "emas": 9567,
      "xxl": 9568,
      "secure": 9569,
      "EQ": 9570,
      "hunde": 9571,
      "sema": 9572,
      "agb": 9573,
      "nowa": 9574,
      "uid": 9575,
      "rze": 9576,
      "arzne": 9577,
      "kva": 9578,
      "yd": 9579,
      "lyn": 9580,
      "pyatietazhnom": 9581,
      "AJ": 9582,
      "odo": 9583,
      "obuchenie": 9584,
      "tell": 9585,
      "aling": 9586,
      "isha": 9587,
      "medel": 9588,
      "CU": 9589,
      "arna": 9590,
      "kingdom": 9591,
      "FU": 9592,
      "cpp": 9593,
      "keep": 9594,
      "planung": 9595,
      "633": 9596,
      "thumb": 9597,
      "marin": 9598,
      "igkeiten": 9599,
      "chod": 9600,
      "beton": 9601,
      "mvc": 9602,
      "seg": 9603,
      "mous": 9604,
      "bq": 9605,
      "ancy": 9606,
      "eleg": 9607,
      "Play": 9608,
      "System": 9609,
      "plink": 9610,
      "limited": 9611,
      "sofa": 9612,
      "zahn": 9613,
      "caps": 9614,
      "applications": 9615,
      "lekcja": 9616,
      "duct": 9617,
      "1117": 9618,
      "heat": 9619,
      "ventil": 9620,
      "pedia": 9621,
      "delta": 9622,
      "december": 9623,
      "popular": 9624,
      "imittel": 9625,
      "Gym": 9626,
      "datas": 9627,
      "589": 9628,
      "ZZ": 9629,
      "icas": 9630,
      "1039": 9631,
      "turnier": 9632,
      "remote": 9633,
      "Pre": 9634,
      "neon": 9635,
      "1304": 9636,
      "umes": 9637,
      "coule": 9638,
      "yk": 9639,
      "loch": 9640,
      "split": 9641,
      "puma": 9642,
      "sprzed": 9643,
      "hets": 9644,
      "jos": 9645,
      "1229": 9646,
      "lies": 9647,
      "kouz": 9648,
      "uelles": 9649,
      "engineer": 9650,
      "mieten": 9651,
      "supplies": 9652,
      "rimo": 9653,
      "sylvan": 9654,
      "zc": 9655,
      "pods": 9656,
      "workshops": 9657,
      "prywat": 9658,
      "pid": 9659,
      "1001": 9660,
      "distribut": 9661,
      "rings": 9662,
      "1248": 9663,
      "procedu": 9664,
      "uka": 9665,
      "communication": 9666,
      "RQ": 9667,
      "lovo": 9668,
      "nych": 9669,
      "cera": 9670,
      "vf": 9671,
      "autres": 9672,
      "avent": 9673,
      "steam": 9674,
      "DM": 9675,
      "eidiseis": 9676,
      "arzneimittel": 9677,
      "1165": 9678,
      "guy": 9679,
      "landes": 9680,
      "JW": 9681,
      "heter": 9682,
      "prices": 9683,
      "vodo": 9684,
      "adul": 9685,
      "eidhseis": 9686,
      "roen": 9687,
      "roof": 9688,
      "goro": 9689,
      "1065": 9690,
      "mav": 9691,
      "spod": 9692,
      "utan": 9693,
      "outils": 9694,
      "dorr": 9695,
      "lans": 9696,
      "feu": 9697,
      "comput": 9698,
      "DL": 9699,
      "fass": 9700,
      "fts": 9701,
      "kontor": 9702,
      "meter": 9703,
      "icker": 9704,
      "enfants": 9705,
      "aksessuary": 9706,
      "1067": 9707,
      "korma": 9708,
      "Ass": 9709,
      "Pan": 9710,
      "Book": 9711,
      "Kw": 9712,
      "ede": 9713,
      "neuer": 9714,
      "schuetzen": 9715,
      "mitglied": 9716,
      "Mus": 9717,
      "kanal": 9718,
      "reading": 9719,
      "stuecke": 9720,
      "accounts": 9721,
      "739": 9722,
      "rics": 9723,
      "1234": 9724,
      "lika": 9725,
      "Sil": 9726,
      "gpt": 9727,
      "pany": 9728,
      "counter": 9729,
      "ljus": 9730,
      "ausstellung": 9731,
      "iri": 9732,
      "slip": 9733,
      "decoration": 9734,
      "otdelkoy": 9735,
      "Kinder": 9736,
      "cycling": 9737,
      "ITE": 9738,
      "keys": 9739,
      "maskin": 9740,
      "eten": 9741,
      "Tous": 9742,
      "pension": 9743,
      "istik": 9744,
      "ilekt": 9745,
      "wich": 9746,
      "chester": 9747,
      "finden": 9748,
      "ION": 9749,
      "asias": 9750,
      "emen": 9751,
      "upper": 9752,
      "Yw": 9753,
      "nberg": 9754,
      "notic": 9755,
      "/!": 9756,
      "catering": 9757,
      "karo": 9758,
      "Verwaltung": 9759,
      "apartments": 9760,
      "Labor": 9761,
      "anakoino": 9762,
      "rudge": 9763,
      "contract": 9764,
      "erste": 9765,
      "immer": 9766,
      "novel": 9767,
      "shops": 9768,
      "iben": 9769,
      "waer": 9770,
      "sezon": 9771,
      "period": 9772,
      "AV": 9773,
      "BX": 9774,
      "jz": 9775,
      "1135": 9776,
      "WTARC": 9777,
      "2073": 9778,
      "inge": 9779,
      "rundreisen": 9780,
      "department": 9781,
      "hle": 9782,
      "boch": 9783,
      "ecole": 9784,
      "PU": 9785,
      "joh": 9786,
      "window": 9787,
      "materials": 9788,
      "bba": 9789,
      "teatr": 9790,
      "concours": 9791,
      "scm": 9792,
      "RF": 9793,
      "ekt": 9794,
      "icals": 9795,
      "basics": 9796,
      "graduate": 9797,
      "refriger": 9798,
      "jobb": 9799,
      "coaches": 9800,
      "denschikov": 9801,
      "Element": 9802,
      "anka": 9803,
      "projekty": 9804,
      "Drudge": 9805,
      "GN": 9806,
      "mcd": 9807,
      "ardo": 9808,
      "reservdelar": 9809,
      "death": 9810,
      "1989": 9811,
      "2227": 9812,
      "ngg": 9813,
      "fonds": 9814,
      "milk": 9815,
      "LQ": 9816,
      "Line": 9817,
      "Respir": 9818,
      "aschen": 9819,
      "schau": 9820,
      "ReportFeed": 9821,
      "DrudgeReportFeed": 9822,
      "mpo": 9823,
      "illet": 9824,
      "2526": 9825,
      "noc": 9826,
      "cole": 9827,
      "monet": 9828,
      "button": 9829,
      "podcasts": 9830,
      "lovskaya": 9831,
      "1137": 9832,
      "boat": 9833,
      "izon": 9834,
      "kong": 9835,
      "maxim": 9836,
      "Val": 9837,
      "rack": 9838,
      "1110": 9839,
      "multip": 9840,
      "pflanzen": 9841,
      "ingle": 9842,
      "Vi": 9843,
      "1318": 9844,
      "better": 9845,
      "behandling": 9846,
      "Mm": 9847,
      "ieg": 9848,
[...]
